<pad>	0
<unk>	0
<s>	0
</s>	0
<ans>	0
</ans>	0
▁	-2.32853
▁کے	-3.3029
▁میں	-3.62175
▁کی	-3.6461
▁،	-3.71525
؟	-4.04859
▁اور	-4.20193
▁سے	-4.26962
ے	-4.33443
▁ہے	-4.37124
▁کو	-4.37391
▁کیا	-4.4441
▁کا	-4.44496
▁پر	-4.48548
▁نے	-4.4931
وں	-4.57293
ی	-4.64808
▁ایک	-4.86897
▁اس	-5.0626
▁کس	-5.21089
▁تھا	-5.23179
▁لئے	-5.29549
▁ہے۔	-5.30454
ہ	-5.33569
طور	-5.36148
▁ہیں	-5.47957
▁گیا	-5.50814
ا	-5.51145
)	-5.55086
▁جو	-5.63959
▁(	-5.66597
▁ساتھ	-5.71168
▁کرنے	-5.71684
▁جس	-5.72596
▁کون	-5.78796
▁کہ	-5.82796
▁جاتا	-5.90057
ز	-5.90734
▁زیادہ	-5.92005
س	-5.9874
۔	-6.05886
▁سی	-6.10231
▁ہیں۔	-6.14154
▁سب	-6.14245
▁یہ	-6.15484
▁ان	-6.18923
▁تک	-6.19023
▁تھا۔	-6.21542
▁بعد	-6.21891
▁استعمال	-6.23717
▁تھی	-6.27371
▁سال	-6.27965
ل	-6.33226
م	-6.3476
▁بھی	-6.38031
▁یا	-6.38686
▁نام	-6.39379
یں	-6.40129
▁سا	-6.44164
▁کتن	-6.50915
ن	-6.5319
▁دیا	-6.54048
▁نہیں	-6.56452
▁تھے	-6.57308
ک	-6.59005
،	-6.5944
ر	-6.60288
نگ	-6.60295
▁کر	-6.61539
▁والے	-6.61954
▁کرتا	-6.65475
▁کرتے	-6.65835
▁شامل	-6.66069
▁پہلے	-6.66698
ات	-6.69222
اپنے	-6.69336
▁وہ	-6.6973
▁بار	-6.69797
▁کم	-6.70467
▁ڈی	-6.72189
▁شہر	-6.73968
▁ہوا	-6.76188
▁ذریعہ	-6.76724
▁گئی	-6.80927
ت	-6.82303
▁دی	-6.83244
نے	-6.84067
▁عام	-6.84181
▁بہت	-6.84833
▁آف	-6.85923
▁کب	-6.86215
▁دوران	-6.87862
▁ہون	-6.89788
▁کیا۔	-6.90059
▁کہا	-6.91626
▁م	-6.91968
▁ایس	-6.92172
▁جب	-6.92439
و	-6.95591
▁بی	-6.96574
▁طرح	-6.98335
▁غیر	-6.9969
▁صدی	-7.00022
▁ریاست	-7.00179
▁دو	-7.00271
▁کام	-7.00274
▁کچھ	-7.01572
▁شروع	-7.01646
▁حاصل	-7.03065
▁اے	-7.03892
▁جنگ	-7.03941
ڈ	-7.06174
▁ہوئے	-7.06636
▁و	-7.07559
ٹ	-7.08623
▁ہی	-7.08624
لیکن	-7.09006
ین	-7.09893
▁قسم	-7.1128
▁بن	-7.12377
▁اپنی	-7.12645
▁وقت	-7.14729
▁جیسے	-7.15877
▁طرف	-7.15895
▁پی	-7.16236
▁ہوتا	-7.16884
▁امریکی	-7.16982
▁اہم	-7.17278
▁جان	-7.1816
▁دور	-7.1823
▁کہاں	-7.20926
▁وجہ	-7.22773
٪	-7.24303
▁تیار	-7.24829
▁آئی	-7.25235
▁والی	-7.25798
▁نیو	-7.26454
-	-7.27039
▁تھی۔	-7.29055
:	-7.29377
▁ویں	-7.31821
▁تر	-7.32493
▁تھے۔	-7.32837
▁حکومت	-7.33516
▁تقریبا	-7.33792
▁آبادی	-7.34868
▁ہوئی	-7.35296
▁حصہ	-7.38614
▁ای	-7.38754
▁پیش	-7.39186
▁کرنا	-7.3986
▁پہلی	-7.4095
▁بڑے	-7.41359
▁متحدہ	-7.42842
▁گئے	-7.43676
▁ایم	-7.4602
▁تو	-7.46595
▁گروپ	-7.46822
▁کرتی	-7.47109
▁تعمیر	-7.47206
صرف	-7.47724
▁جانا	-7.47757
▁واقع	-7.47906
▁زبان	-7.48188
▁جاتی	-7.48634
▁انہ	-7.49405
▁دہائی	-7.49584
▁جن	-7.49836
▁ٹی	-7.49837
یا	-7.49868
▁مختلف	-7.49899
▁جاری	-7.50433
▁امریکہ	-7.5086
▁ملک	-7.50944
▁بنیادی	-7.51005
▁ہوتی	-7.52095
▁دنیا	-7.52116
▁ہر	-7.5227
▁-	-7.52856
ون	-7.53005
▁کی۔	-7.56122
▁دیگر	-7.56338
▁دوسرے	-7.56562
▁درج	-7.5758
تمام	-7.5777
▁این	-7.58094
▁قائم	-7.58509
▁پیدا	-7.58567
▁آر	-7.59879
s	-7.59976
▁ہو	-7.60324
انہ	-7.61226
ری	-7.61518
▁بڑی	-7.6183
▁پہلا	-7.6193
▁خلاف	-7.63323
▁درمیان	-7.64505
▁گھر	-7.65871
ہائ	-7.66055
▁ایل	-7.66189
▁اسکول	-7.66406
▁یونیورسٹی	-7.66729
▁شمالی	-7.66955
▁ملین	-7.67277
ف	-7.67294
▁مطابق	-7.67857
▁لوگوں	-7.67862
▁اب	-7.67939
▁ابتدائی	-7.67942
▁جبکہ	-7.68272
▁کسی	-7.6854
▁کردیا	-7.69787
▁سلطنت	-7.70012
▁قانون	-7.70093
▁او	-7.70398
▁ہوتے	-7.70543
▁ایف	-7.70957
▁تشکیل	-7.71261
اں	-7.71313
▁نظام	-7.73644
▁بال	-7.73892
▁ترقی	-7.75986
▁تین	-7.76674
▁شدہ	-7.76732
▁عمل	-7.7764
▁خاص	-7.78537
▁بچ	-7.78652
▁برطانیہ	-7.79154
ش	-7.79237
▁یو	-7.80093
▁علاقے	-7.80868
▁بنیاد	-7.81426
▁بڑا	-7.81505
د	-7.81546
▁کار	-7.82122
▁وی	-7.82413
ان	-7.82589
▁تاریخ	-7.8273
▁پیمان	-7.82806
▁فیصد	-7.83146
▁مابین	-7.832
▁تعلیم	-7.83488
▁مقامی	-7.83512
ب	-7.83802
▁والا	-7.84425
▁مغربی	-7.84845
▁فرانسیسی	-7.84863
▁دوسری	-7.85312
▁دینے	-7.8565
▁لی	-7.85819
▁کوشش	-7.85829
▁ختم	-7.86375
▁فراہم	-7.86393
▁جرمن	-7.86457
▁دونوں	-7.86745
▁برطانوی	-7.87039
▁کتنا	-7.87229
▁تبدیل	-7.87258
▁کمپنی	-7.87453
▁مکمل	-7.87539
▁پاس	-7.87707
▁اصل	-7.87749
نا	-7.87874
▁جی	-7.88004
▁اکثر	-7.8849
▁خاندان	-7.89028
▁جنوبی	-7.89209
▁ذریعے	-7.89404
▁سرکاری	-7.89406
لی	-7.89598
▁رہا	-7.89653
▁چیز	-7.89911
▁علاقوں	-7.90034
دوبارہ	-7.91305
▁17	-7.91478
▁علاوہ	-7.92398
▁قابل	-7.92542
▁مشرقی	-7.92734
▁کیونکہ	-7.93049
▁چرچ	-7.93635
▁صدر	-7.93637
▁سمجھا	-7.93679
ج	-7.9431
▁زمین	-7.94368
▁موسم	-7.95572
سٹ	-7.95616
▁مین	-7.95629
▁دن	-7.95878
▁ب	-7.96285
▁نئے	-7.96424
▁جگہ	-7.96804
▁مل	-7.97033
▁تحت	-7.97165
▁بندی	-7.97403
▁اجازت	-7.97573
▁سکتا	-7.97579
▁حصے	-7.9779
▁گیا۔	-7.97874
▁جدید	-7.98219
▁بین	-7.98266
▁مشہور	-7.98669
▁یورپی	-7.98717
▁فوج	-7.98743
▁3	-7.98806
▁اعلی	-7.98853
▁مثال	-7.99447
▁لے	-7.99687
▁جہاں	-8.00077
▁شکل	-8.00115
▁یونانی	-8.0037
▁کردہ	-8.00436
▁انتخاب	-8.00686
ئی	-8.00778
▁فٹ	-8.00842
▁قدیم	-8.00896
▁2	-8.009
▁آخر	-8.01137
▁سطح	-8.01603
تا	-8.01913
▁ہم	-8.02308
▁کنٹرول	-8.02437
▁بنایا	-8.0263
▁مدد	-8.0332
▁ریکارڈ	-8.03634
سی	-8.04005
▁ممالک	-8.04188
▁چین	-8.04245
▁ت	-8.04744
▁آغاز	-8.04992
▁سسٹم	-8.05139
▁خیال	-8.05755
▁خود	-8.05859
▁کوئی	-8.06034
"	-8.0641
▁فلم	-8.06447
▁سٹی	-8.07112
▁نتیج	-8.07186
▁رنگ	-8.07873
▁لیگ	-8.08466
▁تقسیم	-8.085
وس	-8.08666
▁کن	-8.08877
ور	-8.08902
ائی	-8.09305
▁اعلان	-8.09569
▁طاقت	-8.09837
▁معیار	-8.10061
▁16	-8.10156
▁کردار	-8.1045
▁حمل	-8.10869
▁مقابل	-8.10872
چ	-8.11118
▁ڈالر	-8.11148
▁اصطلاح	-8.11457
▁ضرورت	-8.11742
▁میل	-8.11842
▁فی	-8.11892
▁یونین	-8.11904
▁15	-8.12539
▁نظر	-8.12698
تھ	-8.12753
▁عظیم	-8.1302
▁سیاسی	-8.13168
▁یارک	-8.13221
▁تجارت	-8.13244
▁کھیل	-8.13338
▁کبھی	-8.13594
▁لوگ	-8.13862
▁انگریزی	-8.14149
▁فوجی	-8.14457
▁حمایت	-8.15174
ار	-8.15182
▁موسیقی	-8.15301
نی	-8.15379
▁مسیح	-8.15523
▁منتقل	-8.15685
▁سینٹ	-8.15703
▁فرانس	-8.15987
▁قریب	-8.16069
اس	-8.16416
▁تاہم	-8.16647
▁سیزن	-8.16675
e	-8.16734
▁اندر	-8.1675
▁18	-8.16795
▁بیان	-8.16851
▁اینڈ	-8.16954
▁لیا	-8.17305
کئی	-8.17375
▁بنانے	-8.17597
▁تعداد	-8.1764
▁متاثر	-8.17641
وسیع	-8.17847
را	-8.17973
▁لندن	-8.18141
▁10	-8.18195
▁"	-8.18208
▁اثر	-8.18495
▁1	-8.18585
▁جا	-8.18631
▁دیا۔	-8.1885
ذ	-8.18931
▁حیثیت	-8.19234
نئی	-8.19301
گ	-8.1943
▁20	-8.19783
▁افراد	-8.20603
سن	-8.20606
▁معاہدے	-8.20682
▁جاسکتا	-8.20881
▁موجود	-8.20956
▁وسطی	-8.21057
▁فروخت	-8.21198
▁جزیر	-8.21496
▁زندگی	-8.21804
▁گا	-8.2211
▁مر	-8.2245
▁جنوب	-8.22522
▁رکھا	-8.22845
▁چار	-8.2289
پ	-8.23427
▁مبنی	-8.24978
▁ویسٹ	-8.25049
▁نسل	-8.25372
▁موت	-8.25636
▁قومی	-8.25697
وامی	-8.26109
▁ڈیزائن	-8.26325
؛	-8.2633
▁الاق	-8.26417
▁ہوائی	-8.26777
'	-8.26816
▁ظاہر	-8.26961
▁یورپ	-8.27041
▁اسٹیشن	-8.28378
▁بھر	-8.28619
▁ش	-8.28733
▁جاتے	-8.29189
▁چینی	-8.29495
▁پروگرام	-8.2956
▁کمی	-8.29581
▁مرکز	-8.29854
▁لائن	-8.30167
دار	-8.30425
i	-8.30531
▁ٹیم	-8.30566
▁رہے	-8.30581
▁الگ	-8.30721
▁کل	-8.31437
▁بادشاہ	-8.31513
▁رومن	-8.31521
▁میٹر	-8.31646
▁/	-8.31744
ٹو	-8.3175
ٹی	-8.31877
▁لیے	-8.32285
▁جہاز	-8.32605
▁سر	-8.32935
▁نشان	-8.33089
▁ٹیلی	-8.33114
▁عوامی	-8.33168
بی	-8.33203
▁لینڈ	-8.3346
▁بات	-8.3347
▁آخری	-8.33541
▁آزاد	-8.3389
▁ہاؤس	-8.34481
▁پانی	-8.34667
▁کتاب	-8.34827
▁پارٹی	-8.34849
▁ال	-8.34888
▁پارک	-8.35017
▁قب	-8.3506
▁توانائی	-8.35449
▁انداز	-8.35492
▁ہوا۔	-8.35604
▁12	-8.35783
▁5	-8.35803
▁مشتمل	-8.35947
▁فن	-8.36065
شائع	-8.36084
نٹ	-8.36865
تعدد	-8.3747
▁شمال	-8.37619
▁ایچ	-8.37755
▁حملہ	-8.38087
▁سوویت	-8.38478
▁تھیں	-8.38758
▁شو	-8.39045
▁اپنا	-8.39204
▁انسانی	-8.39212
▁نیشنل	-8.39422
▁جائے	-8.39487
▁وضاحت	-8.39612
▁عمارت	-8.39819
▁نو	-8.3991
▁پانچ	-8.40103
▁بولی	-8.40127
▁مطلب	-8.40132
▁جنرل	-8.40237
▁مشرق	-8.40298
▁وال	-8.40416
▁اضافہ	-8.4058
یو	-8.40683
نکہ	-8.40777
▁پرجاتیوں	-8.40906
y	-8.41064
▁عمر	-8.41174
.	-8.4131
ول	-8.41779
▁2010	-8.42033
a	-8.42489
▁مقصد	-8.42772
▁کالج	-8.42808
▁حالا	-8.42993
2	-8.43235
▁برقرار	-8.43416
▁جمہوریہ	-8.43479
o	-8.43721
▁لا	-8.43781
▁آئین	-8.43958
▁موجودہ	-8.44141
▁کلومیٹر	-8.44283
تعارف	-8.44608
▁ف	-8.44757
▁ثقافت	-8.44902
▁مرکزی	-8.44921
▁قبضہ	-8.44924
▁چھوڑ	-8.44936
▁حوالہ	-8.45028
مہ	-8.45099
▁حکمرانی	-8.45163
▁14	-8.45337
▁مذہبی	-8.45478
▁تنظیم	-8.46089
0	-8.46249
▁انگلینڈ	-8.46257
▁روم	-8.46315
▁8	-8.46439
بل	-8.46518
کس	-8.46806
▁واحد	-8.46812
▁قیادت	-8.47819
وا	-8.48028
?	-8.48158
رز	-8.48284
روایتی	-8.48416
یت	-8.485
▁اگر	-8.48876
▁بجائے	-8.49067
▁لفظ	-8.4933
وجہ	-8.49685
انے	-8.498
▁دیتا	-8.49813
ٹر	-8.49851
▁کونسل	-8.50154
▁رہت	-8.50712
▁4	-8.50755
▁واپس	-8.50877
▁مئی	-8.50982
▁پھر	-8.51021
ٹن	-8.51094
▁باہر	-8.51138
▁دار	-8.51139
▁بے	-8.51153
▁شکار	-8.51236
وی	-8.51266
▁پیرس	-8.51396
▁مارچ	-8.51522
▁تبدیلی	-8.51626
▁طلباء	-8.51723
▁آزادی	-8.51814
▁رکھن	-8.52028
▁ادا	-8.52191
سے	-8.52501
▁خدمات	-8.52544
▁مطالعہ	-8.52548
▁13	-8.52653
▁ہائی	-8.52762
▁19	-8.52903
گی	-8.52974
▁ستمبر	-8.53613
▁وکٹوریہ	-8.53649
▁سکتے	-8.53744
▁منتخب	-8.5433
▁ق	-8.54416
▁خواتین	-8.5445
▁رکھی	-8.54499
▁11	-8.54548
▁ہسپانوی	-8.55278
شن	-8.55399
▁ایئر	-8.55572
▁علم	-8.55779
▁2011	-8.55786
▁سینٹر	-8.56084
ح	-8.56091
▁2008	-8.56273
▁روسی	-8.5629
▁جین	-8.5658
▁معاشی	-8.57008
▁بیل	-8.57037
▁شہنشاہ	-8.57379
▁مرد	-8.5748
▁بدھ	-8.5753
▁6	-8.57566
▁تاریخی	-8.57571
▁اوائل	-8.57639
کا	-8.57693
▁اگرچہ	-8.57766
▁جیت	-8.57776
کو	-8.57888
کل	-8.57913
▁ہندوستان	-8.57915
▁ممبر	-8.57961
▁میوزک	-8.58
▁جون	-8.5801
▁مغرب	-8.58179
جی	-8.58299
▁2007	-8.58382
▁تاک	-8.58579
زم	-8.58589
,	-8.58994
▁دیکھا	-8.59058
▁میک	-8.59254
یلو	-8.59308
▁C	-8.59343
▁7	-8.5939
▁ملکہ	-8.59412
▁حد	-8.59465
n	-8.59501
▁دفاع	-8.5976
▁رہی	-8.6024
▁نقصان	-8.60271
▁نہ	-8.60304
▁آپ	-8.60437
▁جمع	-8.60779
▁دریافت	-8.60779
▁دوسرا	-8.60918
▁دیتے	-8.61102
▁شہری	-8.61224
▁مدت	-8.61565
▁لکھا	-8.61577
▁با	-8.61584
▁2013	-8.61686
نس	-8.61778
▁وزیر	-8.61817
▁افریقی	-8.61939
▁مت	-8.6199
▁قانونی	-8.62256
t	-8.62283
▁جنوری	-8.62358
▁مار	-8.62393
▁نمبر	-8.6272
▁بغیر	-8.62723
▁نسلی	-8.62768
p	-8.62947
تی	-8.63009
▁راست	-8.63155
اؤ	-8.63427
▁کلب	-8.63466
▁نقطہ	-8.63507
▁ذ	-8.63511
▁مقام	-8.63521
▁پسند	-8.63687
c	-8.63968
▁مواد	-8.6417
▁2009	-8.64174
▁روشنی	-8.64417
▁قرار	-8.64432
▁تجویز	-8.64566
▁وفاقی	-8.64566
▁اوسط	-8.64572
▁شکست	-8.64832
▁سان	-8.64941
▁بند	-8.64985
جام	-8.65179
ال	-8.65247
▁لڑائی	-8.65508
▁نمائندگی	-8.65908
▁تحریک	-8.6604
▁مشترک	-8.6604
ڈر	-8.66084
▁خصوصیات	-8.6614
کر	-8.66185
▁جرمنی	-8.66452
▁شوپن	-8.66586
▁طویل	-8.66718
▁مجموع	-8.66842
▁حصوں	-8.66844
▁شرح	-8.67127
▁علاقہ	-8.67537
▁دارالحکومت	-8.67674
ٹا	-8.67834
▁2012	-8.68093
▁طریقہ	-8.68116
▁2014	-8.68368
▁داخل	-8.68434
▁دے	-8.68489
▁آج	-8.68742
▁تعلقات	-8.68743
▁کینیڈا	-8.68779
▁چھوٹے	-8.68859
▁منعقد	-8.68917
▁مذہب	-8.68923
▁ری	-8.69045
▁کیتھولک	-8.69056
▁اختیار	-8.69175
▁جیسا	-8.69217
▁مالی	-8.69257
▁اوپر	-8.69274
▁مارکیٹ	-8.69345
▁آیا	-8.69574
▁شناخت	-8.69755
ق	-8.70338
▁بل	-8.70417
▁اکتوبر	-8.71024
▁مقبول	-8.71151
1	-8.71191
رو	-8.71254
▁مقابلہ	-8.71469
▁بڑھ	-8.7187
▁اپریل	-8.71882
▁خطے	-8.72421
▁عثمانی	-8.72434
▁منسلک	-8.72454
▁کاؤنٹی	-8.7271
▁ورک	-8.72773
▁گر	-8.73236
▁چلت	-8.73258
▁ساحل	-8.73327
▁عرص	-8.73467
u	-8.73478
▁سفر	-8.73479
▁اختتام	-8.73612
▁نمایاں	-8.73612
▁اضاف	-8.73715
فی	-8.73836
]	-8.73904
▁آ	-8.73927
▁پال	-8.74008
▁ہیون	-8.74035
▁لکڑی	-8.74051
▁ماڈل	-8.74051
قدرتی	-8.7409
▁سو	-8.74099
▁مزید	-8.74202
سٹر	-8.7434
▁جولائی	-8.74638
▁بنا	-8.7467
▁اگست	-8.74784
▁عدالت	-8.74942
▁نظریہ	-8.74959
▁اینٹی	-8.75427
/	-8.75823
▁دسمبر	-8.7614
▁پایا	-8.76181
▁نیٹ	-8.76234
▁گئی۔	-8.7627
▁خدا	-8.76419
▁ساؤتھ	-8.76422
▁پور	-8.76514
▁صلاحیت	-8.76804
▁فتح	-8.76869
▁بورڈ	-8.76913
▁فام	-8.77193
▁اسٹریٹ	-8.77227
▁بڑھت	-8.77571
▁ایکٹ	-8.77778
ڈی	-8.77932
▁گرد	-8.77957
▁کردیا۔	-8.78009
▁فیصلہ	-8.78015
▁متعلق	-8.78209
▁ورلڈ	-8.78236
▁تصور	-8.78272
▁چھ	-8.78333
▁ریاستوں	-8.78569
▁افریقہ	-8.78692
▁ہوسکت	-8.78748
▁دی۔	-8.78826
▁اپ	-8.79126
▁افواج	-8.79307
▁مضبوط	-8.79429
▁ڈچ	-8.79468
▁رکھتا	-8.79666
▁دریا	-8.79763
▁قیمت	-8.79773
▁ذکر	-8.79928
▁روس	-8.7998
ڈو	-8.80527
▁فرق	-8.80541
▁خدمت	-8.80548
▁شادی	-8.80554
▁کامیابی	-8.80585
▁بغاوت	-8.80704
▁ناصر	-8.80707
▁یونان	-8.80853
▁قوم	-8.80907
▁آرٹ	-8.80953
4	-8.81205
▁سائنس	-8.81293
▁براہ	-8.81347
▁پتہ	-8.81407
محدود	-8.81467
▁شہروں	-8.81684
▁کلاسیکی	-8.81805
▁سفید	-8.81963
▁2006	-8.81972
▁آب	-8.82166
▁پیداوار	-8.82303
l	-8.8232
▁ایپل	-8.82428
وک	-8.82796
▁سروس	-8.82866
▁شخص	-8.82888
▁دستیاب	-8.82918
▁2015	-8.82926
▁ویژن	-8.82969
▁سبب	-8.83
▁جنہ	-8.83008
▁کرکے	-8.83255
▁عالمی	-8.83272
▁البم	-8.83642
تہائی	-8.83652
3	-8.83684
▁جارج	-8.83859
S	-8.8413
g	-8.84197
▁میکسیکو	-8.84529
▁توسیع	-8.84776
▁ممکنہ	-8.84796
▁پالیسی	-8.84859
▁بیس	-8.84951
کی	-8.8516
▁بہتر	-8.8536
▁اتحاد	-8.8537
▁یہودی	-8.85516
ذا	-8.85641
▁آواز	-8.85835
▁انقلاب	-8.85868
▁ریاستی	-8.85907
▁تخلیق	-8.86167
▁زندہ	-8.86168
▁مختصر	-8.86207
یٰ	-8.86215
▁حرارت	-8.86498
▁'	-8.86622
▁گی	-8.86656
▁نومبر	-8.8683
▁کیڑے	-8.86854
ط	-8.86855
▁پابندی	-8.86909
▁بحری	-8.86925
▁من	-8.8708
▁تعلق	-8.87206
▁سربراہ	-8.87833
▁سیاہ	-8.8799
▁خصوصی	-8.88105
وم	-8.88132
ٹری	-8.8817
ؤں	-8.88249
▁سائٹ	-8.88491
▁پیچھے	-8.88539
▁جاپان	-8.88735
▁فوجیوں	-8.8884
▁تعریف	-8.88845
نپولین	-8.89015
▁دستخط	-8.89015
▁محفوظ	-8.89185
▁دیکھ	-8.89194
▁کرسکت	-8.89301
▁فری	-8.89339
ٹس	-8.89444
k	-8.89575
▁ہجرت	-8.89868
ما	-8.8989
▁پولیس	-8.89963
h	-8.89998
▁اسی	-8.90136
▁جاپانی	-8.90151
▁انسان	-8.90163
▁شاہی	-8.90167
▁حقوق	-8.90212
▁پوپ	-8.90249
m	-8.9037
یم	-8.90452
پا	-8.90685
▁معیشت	-8.90729
▁ووٹ	-8.90743
▁مصر	-8.90798
▁ترین	-8.91009
▁منصوبہ	-8.91075
▁نقل	-8.91249
▁2005	-8.91262
▁قرون	-8.91434
▁تسلی	-8.91458
f	-8.9179
▁رکھتے	-8.91798
▁جانوروں	-8.91967
▁سامن	-8.92008
▁آہستہ	-8.92122
▁راک	-8.9223
▁کاروبار	-8.92297
▁دیر	-8.92358
▁مستقل	-8.92371
▁چاہئے	-8.92768
▁ویڈیو	-8.92805
▁سمندری	-8.9282
▁میزبان	-8.92826
▁تھیٹر	-8.92861
▁مربع	-8.93002
▁ریڈیو	-8.93033
▁فورس	-8.93284
▁ثقافتی	-8.9339
▁ناف	-8.93399
▁تحقیق	-8.93404
r	-8.93423
▁اسکولوں	-8.93486
5	-8.93633
▁آلات	-8.9377
ٹک	-8.93809
▁کمیونٹی	-8.93896
جو	-8.93937
▁رپورٹ	-8.93997
جس	-8.94164
▁پودوں	-8.94248
▁نیا	-8.94407
می	-8.94464
▁2000	-8.94464
d	-8.94495
▁وسط	-8.94591
▁معاشرتی	-8.94606
▁میوزیم	-8.94606
▁لگایا	-8.94622
یشن	-8.94821
▁ذیل	-8.94869
▁تھیں۔	-8.95016
▁نجی	-8.95029
▁بینڈ	-8.95159
▁لاطینی	-8.95178
▁اوکلاہوما	-8.95328
▁جزائر	-8.95328
ع	-8.95415
▁آس	-8.95426
▁مقرر	-8.95509
کن	-8.95801
▁تباہ	-8.95823
فٹ	-8.95832
▁گھروں	-8.95837
▁انتظام	-8.96009
▁بالآخر	-8.96054
▁عرب	-8.96264
▁کامیاب	-8.96378
▁جزیرہ	-8.96521
▁سکتی	-8.968
▁نتیجہ	-8.96862
▁گا۔	-8.96936
▁معاہدہ	-8.9697
▁بیک	-8.97044
▁ڈیم	-8.97148
▁بندرگاہ	-8.97154
▁آمدنی	-8.97349
▁سابق	-8.97412
b	-8.97465
00	-8.97493
▁بلین	-8.97521
▁سرگرمی	-8.97643
▁اعظم	-8.97709
▁وے	-8.97714
▁25	-8.97732
in	-8.98015
▁ورژن	-8.9808
▁گئیں	-8.98306
▁A	-8.98527
▁از	-8.98537
انا	-8.99127
▁کورٹ	-8.99145
بر	-8.99198
▁صحت	-8.99203
▁منظم	-8.99203
▁فروری	-8.99207
▁قبول	-8.99232
دھ	-8.99258
گو	-8.99275
▁لینے	-8.99362
▁S	-8.99385
▁ہیڈ	-8.99561
بو	-8.99577
▁خصوصیت	-8.99701
▁سابقہ	-8.99772
بہترین	-8.9994
▁جسم	-8.99987
al	-9.00041
تیزی	-9.00137
مین	-9.00175
▁9	-9.00207
▁ہتھیار	-9.00338
▁مخصوص	-9.00528
▁سخت	-9.00719
▁کانگریس	-9.0072
▁کیں	-9.01055
▁عنوان	-9.01102
▁جے	-9.01288
گا	-9.01368
▁رہنما	-9.0144
▁باوجود	-9.01486
▁سمندر	-9.01492
▁کاری	-9.01511
▁نظریات	-9.0163
re	-9.0165
دہی	-9.01664
▁کارروائی	-9.01679
▁مقامات	-9.01861
▁مرکوز	-9.01872
▁یافتہ	-9.01872
اقوام	-9.01892
▁رہائشی	-9.01899
▁ملی	-9.0194
A	-9.02118
▁کرایا	-9.02145
▁کافی	-9.02629
لک	-9.02691
▁ڈیل	-9.02713
▁ہونا	-9.02718
▁میدان	-9.02844
▁میڈیا	-9.02859
▁جنسی	-9.02878
لینڈ	-9.02925
▁کرے	-9.03082
▁ضروری	-9.03109
▁ڈیٹا	-9.03116
خ	-9.03165
▁جواب	-9.03462
▁ٹیوٹ	-9.03524
▁کھیلوں	-9.03615
▁مسترد	-9.0402
▁عملی	-9.04088
▁اندرونی	-9.04219
▁بوسٹن	-9.04263
▁سرخ	-9.04441
▁اکثریت	-9.04486
▁°	-9.04666
▁باقی	-9.04689
▁اسٹیٹ	-9.04723
▁سلسل	-9.04814
▁جزو	-9.04816
▁آئیڈل	-9.04849
پر	-9.04901
اب	-9.0491
▁نیچے	-9.0492
اضح	-9.05013
▁ریلوے	-9.05014
▁کمپیوٹر	-9.0536
▁M	-9.05426
▁اطالوی	-9.05726
مر	-9.05785
▁غلام	-9.0586
لو	-9.0598
▁رہنے	-9.06022
روغ	-9.06039
▁ملکی	-9.06093
پی	-9.06151
ar	-9.0631
▁زبانوں	-9.06382
▁گئے۔	-9.06394
▁امریکن	-9.06621
▁وائٹ	-9.0666
▁حق	-9.06826
▁پوسٹ	-9.0693
▁طریقوں	-9.07385
▁زیر	-9.07442
▁فعال	-9.07639
▁وابستہ	-9.07844
▁آباد	-9.0788
▁بینک	-9.0794
▁کھانے	-9.07943
وف	-9.08136
▁ترک	-9.08143
▁گورنر	-9.08166
▁دورہ	-9.08178
▁ہال	-9.08186
مپٹن	-9.08263
▁آن	-9.08282
▁انسٹی	-9.08333
▁سامنے	-9.08364
▁اداروں	-9.08464
▁برعکس	-9.08668
رین	-9.08684
▁تنازعہ	-9.08846
▁قوانین	-9.08875
▁فیلڈ	-9.08897
▁ملت	-9.08988
▁عیسائی	-9.09185
▁مجبور	-9.0929
▁30	-9.09328
er	-9.09357
▁کوڈ	-9.09405
▁1990	-9.09505
▁الفاظ	-9.09707
0،000	-9.09714
▁مہم	-9.09829
▁خارج	-9.09916
یز	-9.09936
اظ	-9.09961
گر	-9.10008
▁قتل	-9.10126
▁سیریز	-9.10129
▁لح	-9.10576
▁جنگی	-9.10703
▁ریڈ	-9.10789
▁ایشن	-9.10987
▁یونٹ	-9.11034
▁منظور	-9.11071
▁اول	-9.11174
▁آسٹریلیا	-9.11365
وسٹن	-9.11372
▁رفتار	-9.11395
▁تاج	-9.11422
▁ایسٹونیا	-9.11608
▁ایسوسی	-9.11609
▁بجلی	-9.11626
ص	-9.11783
▁حروف	-9.11819
▁اڈے	-9.11823
▁ہندوستانی	-9.11966
رس	-9.12173
▁ریل	-9.12255
▁ویئر	-9.12392
▁100	-9.12595
▁ہوگئی	-9.12648
I	-9.1275
▁فائدہ	-9.12892
▁1970	-9.13117
▁حکم	-9.13302
یس	-9.13362
▁طریق	-9.13547
▁پوڈ	-9.13661
▁جنس	-9.13688
▁شماری	-9.13827
▁بولنے	-9.13982
▁عائ	-9.14078
▁جاسکے	-9.14195
▁سمیت	-9.14211
▁چاہت	-9.14295
▁تنقید	-9.14338
us	-9.14469
▁ٹاپ	-9.14652
▁سیٹ	-9.15022
▁آرڈر	-9.15156
▁ایسٹ	-9.15269
▁سرحد	-9.1527
▁ولیم	-9.15276
▁اصول	-9.15294
▁آنے	-9.15347
▁ملکیت	-9.1545
▁2004	-9.15524
▁ترجمہ	-9.15593
▁پائے	-9.15649
▁واشنگٹن	-9.15959
▁دعو	-9.15999
▁کریں	-9.16077
▁ارد	-9.16255
▁I	-9.16431
لال	-9.16489
▁دہ	-9.16562
دی	-9.16591
6	-9.16601
▁اشرافیہ	-9.16629
▁پارلیمنٹ	-9.16629
▁صارفین	-9.16657
▁مسائل	-9.16855
▁پھیل	-9.1707
▁مارشل	-9.17082
▁جلد	-9.171
▁رائل	-9.17105
▁تلاش	-9.17303
▁کیرولائنا	-9.17303
▁ٹائمز	-9.17528
من	-9.17566
▁سن	-9.17829
▁24	-9.17924
▁ناکام	-9.17935
▁نصف	-9.17977
▁نوجوان	-9.17982
▁دائر	-9.18023
E	-9.18049
▁ہاور	-9.18149
▁سپریم	-9.18224
▁سیل	-9.18283
▁شمسی	-9.18438
z	-9.18469
▁دیئے	-9.18479
وز	-9.18496
▁فار	-9.18528
▁اچھ	-9.18569
▁لہ	-9.18571
▁قرض	-9.18719
▁کالونی	-9.19125
▁ایونیو	-9.19129
▁گرما	-9.19293
▁حیاتیات	-9.19333
▁درخواست	-9.19353
▁اگل	-9.19382
انی	-9.19418
▁مردوں	-9.19433
ائڈ	-9.19462
▁کیری	-9.19487
▁حل	-9.1975
▁رہائش	-9.19782
▁متبادل	-9.19815
▁ڈویژن	-9.19815
▁پسندی	-9.19874
▁21	-9.19882
▁گیم	-9.20127
▁ہوئی۔	-9.20138
▁لانچ	-9.20278
▁سائز	-9.20345
یہ	-9.2036
▁گرج	-9.20769
▁مصنوعات	-9.20807
en	-9.20909
▁ڈگری	-9.20977
▁پوزیشن	-9.21014
▁حکمران	-9.21196
▁مشعل	-9.21212
▁انکار	-9.2132
▁علاقائی	-9.21446
▁مقیم	-9.21446
▁ڈبلیو	-9.21455
▁اینٹینا	-9.21508
▁لو	-9.21654
▁آئزن	-9.21682
▁براعظم	-9.21682
▁ٹیکس	-9.21751
▁ماحولیات	-9.21924
فورڈ	-9.21962
▁گانے	-9.22017
▁واقعات	-9.22155
▁سرمایہ	-9.22164
▁بر	-9.22193
▁پیدائش	-9.22228
▁بیونسے	-9.22261
▁تیز	-9.22274
▁F	-9.22446
▁بیئر	-9.22511
▁ہوئے۔	-9.22513
▁گ	-9.22541
▁رسوخ	-9.22628
▁سپر	-9.22632
▁کمانڈ	-9.22666
▁جیمز	-9.22683
▁گرینڈ	-9.22763
▁نیوز	-9.22774
تے	-9.22779
▁اسرائیل	-9.22861
▁صنعت	-9.23054
▁نمائش	-9.23105
▁ہوگئے	-9.2311
▁وان	-9.23155
ں	-9.23157
▁ڈو	-9.23233
▁اسپین	-9.23311
اء	-9.23314
▁باضابطہ	-9.23346
▁پل	-9.23352
▁پیشہ	-9.23507
▁آئرلینڈ	-9.23588
▁قریبی	-9.23591
سو	-9.23694
▁کارکردگی	-9.23825
▁اٹلی	-9.23825
▁موٹر	-9.23864
▁والد	-9.24075
ٹرنیٹ	-9.24248
▁کپ	-9.24299
la	-9.24322
ارڈ	-9.24535
▁دہل	-9.24553
20	-9.24585
▁کھو	-9.24646
8	-9.24682
▁روک	-9.2479
▁مقدار	-9.24792
▁معلومات	-9.24847
or	-9.25194
▁پرند	-9.25337
▁کوریا	-9.25347
▁40	-9.25488
▁جسمانی	-9.25585
▁یہودیوں	-9.25597
▁ییل	-9.25607
▁حوصل	-9.25769
▁لائبریری	-9.25769
▁میچ	-9.25824
▁حالت	-9.25839
▁چھوٹی	-9.25883
le	-9.25995
▁آسٹریا	-9.26015
▁بیکٹیریا	-9.26015
▁زلزل	-9.26024
▁گاہ	-9.26043
ض	-9.26167
▁روایت	-9.2619
▁ترتیب	-9.26261
▁روشن	-9.26311
▁صوتی	-9.26315
▁ویل	-9.26478
▁دماغ	-9.26508
▁شمار	-9.26525
▁آگے	-9.26597
▁بارش	-9.26795
▁ڈسک	-9.26993
▁ایجاد	-9.27005
▁سائنسی	-9.27025
▁پہنچ	-9.27026
▁سازی	-9.2704
▁چیف	-9.27058
▁داری	-9.27077
▁کیے۔	-9.27107
▁ووڈ	-9.2717
ڈن	-9.2737
▁بنائے	-9.27399
▁علامت	-9.27609
M	-9.27734
▁میڈونا	-9.27752
▁ماہر	-9.2777
▁شاخ	-9.28017
▁سول	-9.28198
گن	-9.28227
▁حقیقت	-9.28298
▁اپنایا	-9.28397
ء	-9.28503
▁وطن	-9.28758
▁وقف	-9.28758
▁فون	-9.28935
▁فارمیٹ	-9.28992
▁نارتھ	-9.29059
لا	-9.29373
مو	-9.29394
▁آئے	-9.29546
▁قیام	-9.29586
▁منظوری	-9.29652
▁عیسوی	-9.29774
▁تبت	-9.29839
▁الزام	-9.29905
▁گرم	-9.29918
▁زور	-9.29945
اسلامی	-9.30067
▁مہین	-9.30096
▁استد	-9.30163
▁گروہوں	-9.30182
وری	-9.30284
▁مسلسل	-9.30287
an	-9.30394
▁ہوسکتا	-9.30453
▁برف	-9.30602
▁عروج	-9.30801
رن	-9.30847
▁N	-9.30871
▁سنگل	-9.31021
▁ڈھانچے	-9.3106
▁اسٹیڈیم	-9.31061
▁سیٹلائٹ	-9.31319
▁کت	-9.31325
▁الیکٹرک	-9.31349
▁عہد	-9.31581
منٹ	-9.31749
▁دیتی	-9.31803
▁شراکت	-9.31839
▁اقدام	-9.31852
▁کیمپس	-9.31968
▁مخالف	-9.31992
▁پروٹسٹنٹ	-9.321
▁پرتگالی	-9.32115
▁مرحل	-9.3212
▁ایکس	-9.32267
▁آپریشن	-9.32359
▁ٹاؤن	-9.32365
▁پرتگال	-9.32423
یل	-9.32439
▁50	-9.32457
،000	-9.32476
O	-9.32504
50	-9.32519
▁شرک	-9.32656
جیسے	-9.32668
افی	-9.32757
▁جینیات	-9.3278
▁ایڈ	-9.32831
▁آرتھوڈوکس	-9.32887
▁صدارت	-9.32888
▁ڈیجیٹل	-9.32889
▁پب	-9.32936
چی	-9.33334
▁کور	-9.33422
▁سات	-9.33588
▁پائی	-9.33632
▁ڈیٹرائٹ	-9.33681
▁1980	-9.33693
▁آرمینیائی	-9.33706
▁پڑا	-9.33713
P	-9.33721
▁تیسری	-9.33806
▁خانہ	-9.33876
▁گرین	-9.33879
▁تجربہ	-9.33947
▁گے	-9.33953
رسائی	-9.34043
▁E	-9.3416
▁نانجنگ	-9.34214
نز	-9.34451
▁رات	-9.34476
▁ایگزیکٹو	-9.34515
بیرونی	-9.34531
▁بیٹ	-9.34647
▁می	-9.3472
شی	-9.34735
▁پار	-9.34754
▁بیماری	-9.3495
یڈ	-9.34998
قات	-9.35218
▁سوئٹزرلینڈ	-9.35287
سا	-9.35295
▁ٹو	-9.35449
ra	-9.35455
▁گلی	-9.35495
▁لگانے	-9.35612
▁معاملات	-9.35613
ٹین	-9.35696
رک	-9.35758
▁تیل	-9.35926
▁پہاڑی	-9.35935
▁کلاس	-9.36167
▁نوٹ	-9.36245
▁ریکارڈنگ	-9.3634
▁علاج	-9.36373
▁اثرات	-9.36512
▁ٹائم	-9.36578
C	-9.36607
با	-9.36607
▁نامزد	-9.36628
▁گیس	-9.37014
▁چارلس	-9.37189
▁عنصر	-9.37195
▁زون	-9.37356
▁مقدم	-9.37424
▁بک	-9.37486
▁(19	-9.37674
▁پورٹ	-9.37742
▁تانبے	-9.37747
▁ضلع	-9.37747
▁طالب	-9.37747
▁فریڈرک	-9.37747
▁دان	-9.37849
▁فلسفی	-9.37883
▁ونڈو	-9.37898
▁انحصار	-9.38024
چون	-9.38111
▁اخراج	-9.38309
▁1960	-9.38314
نو	-9.38329
▁عد	-9.38382
▁کرسکتا	-9.38408
▁ذاتی	-9.38599
▁بحران	-9.38614
▁روز	-9.38804
▁البرٹ	-9.38878
▁فارم	-9.38928
▁بشمول	-9.3912
▁اقسام	-9.39139
▁مواصلات	-9.39139
▁جائز	-9.39141
▁دوست	-9.39198
▁حفاظت	-9.3921
لم	-9.39259
▁باقاعد	-9.39288
▁تھامس	-9.39304
کٹ	-9.39461
▁پین	-9.39502
▁ٹور	-9.39534
▁منتقلی	-9.39624
▁پہنچا	-9.39732
▁ایران	-9.39853
▁مرکب	-9.3986
▁افزائی	-9.39952
▁منگ	-9.40141
ڑ	-9.40262
▁اطلاع	-9.40268
▁اظہ	-9.40348
ڈا	-9.40459
▁کانفرنس	-9.40552
▁فائر	-9.40552
اد	-9.40602
▁اصلاحات	-9.40614
نک	-9.40637
▁مالک	-9.40639
▁مزدور	-9.40837
باؤ	-9.40879
▁آٹھ	-9.41046
▁فلسفہ	-9.41051
▁تبادل	-9.41123
پو	-9.41185
▁دعوی	-9.41219
چر	-9.41367
▁پیرو	-9.41566
▁چیمپئن	-9.41696
▁جماعت	-9.41698
▁بالغ	-9.41735
▁صومالی	-9.41922
ویل	-9.41949
▁سماجی	-9.41985
گل	-9.41989
▁کھانا	-9.42028
▁پاور	-9.42049
▁پلے	-9.42211
ڈین	-9.4224
▁اجزاء	-9.42274
▁صنف	-9.42274
▁اعداد	-9.42274
فر	-9.42527
▁آؤٹ	-9.42563
▁حالی	-9.42591
▁ترجیح	-9.42854
▁وار	-9.43048
▁بیونسی	-9.43084
اک	-9.43106
حقیقی	-9.43129
وب	-9.43196
▁لایا	-9.4331
▁نائیجیریا	-9.43438
▁میلبورن	-9.43445
▁پرست	-9.43589
th	-9.43648
▁رقم	-9.43731
▁موزیک	-9.43734
▁الحال	-9.43735
▁2003	-9.43749
حکام	-9.43818
▁پڑتا	-9.44014
▁قواعد	-9.44025
▁محل	-9.44026
جن	-9.44042
▁موجودگی	-9.44095
▁زی	-9.44128
▁نیپ	-9.44247
▁مشین	-9.44443
9	-9.44491
D	-9.44593
▁اتفاق	-9.44616
▁اٹلانٹ	-9.44616
▁بنائی	-9.4466
▁K	-9.44812
▁ماحول	-9.44905
▁مطالب	-9.44913
▁آرمی	-9.44966
▁ٹیسٹ	-9.45004
▁سامان	-9.45201
▁جج	-9.45236
▁ڈاکٹر	-9.45238
▁بو	-9.45488
▁اسمبلی	-9.4551
▁کاغذ	-9.45683
▁پلائیماؤتھ	-9.45809
▁پتھر	-9.45809
▁ورزی	-9.45836
▁بٹ	-9.46048
▁شیل	-9.46182
▁یورینی	-9.46195
دید	-9.46254
وڈ	-9.46254
▁شپ	-9.46337
▁تجزی	-9.46706
▁مظاہرہ	-9.46865
▁کراس	-9.46925
ام	-9.46979
ہمیشہ	-9.47015
▁پیٹنٹ	-9.47038
▁روڈ	-9.47123
7	-9.47215
▁ہان	-9.47261
▁لیا۔	-9.4727
▁رکاوٹ	-9.47319
▁کمیٹی	-9.47405
▁ترمیم	-9.47624
▁آت	-9.47656
▁بڑھا	-9.47695
ارکین	-9.47835
اید	-9.47934
w	-9.48057
▁فیصل	-9.48062
▁G	-9.48064
▁فراہمی	-9.48147
is	-9.48155
کتے	-9.48347
▁23	-9.48532
▁ہوجات	-9.48547
▁1950	-9.48568
▁د	-9.48588
▁گانا	-9.4859
▁گئیں۔	-9.48623
▁بشپ	-9.48628
▁بلک	-9.48746
▁کھولا	-9.48766
▁توقع	-9.48779
یٹ	-9.48782
▁خطر	-9.4886
▁چلنے	-9.48924
▁اسکاٹ	-9.49166
▁2001	-9.49221
▁پولی	-9.49411
▁خشک	-9.49473
▁کمزور	-9.49482
▁ہدایت	-9.4961
▁بری	-9.49718
▁مزاحیہ	-9.49785
▁ادارہ	-9.49787
▁میسن	-9.49834
▁معمولی	-9.4986
▁دیوار	-9.49877
▁مجموعہ	-9.49953
▁غلط	-9.50077
▁برازیل	-9.50097
ڑوں	-9.50098
دہ	-9.50131
▁پ	-9.50307
▁خاتمے	-9.50411
▁طوفان	-9.50411
چو	-9.50436
▁چیک	-9.5061
▁صنعتی	-9.50683
▁پول	-9.50812
▁کیریئر	-9.50925
▁درخت	-9.51041
▁عناصر	-9.51041
▁ملاقات	-9.51049
▁ویب	-9.5106
▁مزاحمت	-9.51082
es	-9.51176
▁ہلاک	-9.51259
▁لائٹ	-9.51295
▁دلچسپ	-9.51357
▁میٹروپولیٹن	-9.51357
▁پچھل	-9.51357
▁وجود	-9.51357
▁میگزین	-9.51358
وان	-9.51486
▁میامی	-9.5168
▁آڈیو	-9.51682
▁رکھت	-9.51801
▁نمو	-9.51878
▁بھیجا	-9.51925
▁برونکس	-9.52001
III	-9.52098
▁سالہ	-9.52139
▁جڑ	-9.52174
▁مظاہر	-9.52197
40	-9.52221
▁تصویر	-9.52312
▁تربیت	-9.52313
▁ٹکسن	-9.52321
ch	-9.52338
▁دس	-9.52427
ri	-9.52584
▁در	-9.52604
▁ٹینیسی	-9.52634
x	-9.52689
▁اختلاف	-9.52954
▁نتائج	-9.52954
▁دفتر	-9.52957
▁موثر	-9.52957
▁مریم	-9.53063
.3	-9.53137
▁کنسرٹ	-9.53277
▁ہوں	-9.53287
▁انیسو	-9.53299
▁زنک	-9.53314
▁جذبات	-9.53318
غ	-9.53335
▁ملا	-9.53373
▁کنگ	-9.53384
▁رینج	-9.53393
▁مصری	-9.5345
▁مصنف	-9.53516
▁ہار	-9.53531
لز	-9.53564
on	-9.53585
▁تعین	-9.53598
▁ارتقا	-9.53601
▁اقت	-9.53609
▁تعاون	-9.53614
▁رکن	-9.53684
▁ہٹ	-9.53765
▁فیڈرل	-9.53892
▁ہارڈ	-9.53935
▁اونچائی	-9.53947
▁رو	-9.54053
▁شہریوں	-9.54107
▁خیالات	-9.54148
F	-9.54166
▁ہوگئے۔	-9.54244
▁بلیک	-9.54298
▁ہوم	-9.54405
▁امن	-9.54418
▁سمجھ	-9.54591
▁کپاس	-9.54617
▁سائیکل	-9.54657
▁ماہ	-9.54888
▁اسٹور	-9.54895
▁پھانسی	-9.54906
عث	-9.54908
▁شکاری	-9.54911
▁ملازمت	-9.54936
▁چیت	-9.55082
▁لہر	-9.55118
ne	-9.5514
▁منصوبے	-9.55235
▁پیچیدہ	-9.55235
▁میئر	-9.55339
▁جیسی	-9.5543
T	-9.55437
▁روکن	-9.55503
▁کمیونسٹ	-9.55574
▁لارڈ	-9.55599
▁غلبہ	-9.55613
▁فضائی	-9.55747
▁تحفظ	-9.55752
▁سوسائٹی	-9.55896
▁ٹکنالوجی	-9.55896
▁علیحدگی	-9.55909
دریائے	-9.55982
▁نما	-9.55983
▁اخبار	-9.56086
▁جانور	-9.56202
▁ڈیاگو	-9.56229
▁الزبتھ	-9.5623
▁دولت	-9.56231
▁دستاویز	-9.56437
▁احتجاج	-9.56561
▁سیئٹل	-9.56561
▁یونیورسل	-9.56561
▁پولینڈ	-9.56578
طے	-9.56592
▁رجحان	-9.56745
▁اہمیت	-9.56799
▁اسٹوڈیو	-9.56896
▁امداد	-9.56897
▁اشار	-9.56932
N	-9.57095
▁لوئس	-9.57104
▁معاشرے	-9.57231
▁رابرٹ	-9.57233
▁برک	-9.57258
▁مسلمان	-9.57263
▁آلہ	-9.57319
▁مال	-9.57432
▁نگرانی	-9.57568
▁سورج	-9.5759
▁ساز	-9.57608
▁حالات	-9.57683
سلح	-9.57737
▁متن	-9.57742
▁رہتا	-9.57759
▁بڑھان	-9.57837
▁دوم	-9.57858
▁حامی	-9.57907
▁ٹریک	-9.5792
▁گوئی	-9.57947
▁چاہئے۔	-9.58016
▁جذب	-9.58115
▁ہنری	-9.58115
برگ	-9.58159
▁کاپی	-9.58202
▁پوری	-9.58221
▁فیسٹیول	-9.58245
▁H	-9.58246
▁ہوگئی۔	-9.58274
وین	-9.58542
▁رد	-9.58545
▁بس	-9.58661
شت	-9.58712
▁مور	-9.58839
رشتہ	-9.589
▁ادارے	-9.58933
▁مقدس	-9.58937
▁قبرص	-9.58996
▁ڈائی	-9.59206
چوان	-9.5926
▁الاسکا	-9.59269
▁فین	-9.59289
▁2002	-9.59299
یک	-9.59349
صد	-9.59364
▁P	-9.59375
▁انٹر	-9.59408
▁بادشاہی	-9.59408
▁فہرست	-9.5949
▁افتتاح	-9.59612
▁کاتالان	-9.59612
▁لکھی	-9.59616
▁والدہ	-9.59636
▁دل	-9.59715
وٹ	-9.59746
ur	-9.59769
▁بم	-9.5983
▁جاسکتی	-9.59865
L	-9.59879
▁26	-9.59888
▁پاپ	-9.59913
▁سبز	-9.59931
▁نفسیات	-9.59957
▁عہدیدار	-9.59958
▁مینڈولین	-9.59958
▁لمبائی	-9.59978
▁بحر	-9.6004
▁اولمپک	-9.6005
▁T	-9.6012
▁بناتے	-9.6014
30	-9.60287
▁انٹرنیشنل	-9.60303
▁مستحکم	-9.60303
▁ادب	-9.60362
▁ڈائریکٹر	-9.60368
▁28	-9.60447
▁موضوع	-9.60506
▁پریمیئر	-9.60652
▁ڈیموکریٹ	-9.60652
▁لاگو	-9.60687
▁بدل	-9.60858
▁سرما	-9.60969
▁تصدیق	-9.60999
▁لائسنس	-9.60999
▁محکم	-9.60999
▁اڈہ	-9.61001
▁پبلک	-9.61016
▁بحالی	-9.61076
عض	-9.61264
▁آرمینیا	-9.61316
▁ذرائع	-9.61349
ئر	-9.61385
▁پلیٹ	-9.61465
▁غالب	-9.61699
▁مؤ	-9.61748
ائ	-9.61883
▁کردی	-9.61966
▁عوام	-9.61973
▁گے۔	-9.62015
▁مثبت	-9.62052
▁اشاعت	-9.62052
▁شیشے	-9.62052
انو	-9.62253
▁کمیشن	-9.6237
▁بھاری	-9.62453
▁چند	-9.62454
او	-9.62476
▁باشند	-9.62506
ئن	-9.62511
▁نیز	-9.62562
▁کہانی	-9.62572
▁22	-9.62577
▁سمجھت	-9.62649
▁کثیر	-9.62762
▁امریکیوں	-9.62782
▁جلت	-9.62968
▁فوٹو	-9.6297
فنکاروں	-9.63066
R	-9.63084
at	-9.63103
▁انفرادی	-9.63123
▁سڑک	-9.63149
▁خط	-9.6315
ئس	-9.63203
.5	-9.63221
▁ماہرین	-9.63249
سل	-9.63253
▁لیبل	-9.63269
.0	-9.63283
▁پورا	-9.63378
▁مسئلہ	-9.63441
▁مشاہد	-9.63473
▁نچل	-9.63473
▁ڈارون	-9.63476
▁ع	-9.63524
▁ہائیک	-9.63617
▁بانی	-9.63649
▁لاج	-9.63716
ویں	-9.63765
▁انتظامیہ	-9.63816
▁بارسلون	-9.63831
▁کمانڈر	-9.6384
▁گو	-9.6398
▁چوٹی	-9.64128
غور	-9.64134
▁مشن	-9.64143
▁پریس	-9.64164
▁پیمائش	-9.64191
▁کارپوریشن	-9.64191
▁متعلقہ	-9.64246
▁پو	-9.64285
▁شعب	-9.64319
▁فو	-9.64494
ia	-9.64539
▁گواہ	-9.64554
حکمت	-9.64584
▁شام	-9.64622
ھ	-9.64674
▁اسکور	-9.64771
▁امکان	-9.64773
▁لاگ	-9.64776
▁ملتا	-9.64903
▁قلع	-9.64914
▁تہوار	-9.64919
▁راستے	-9.64922
▁درد	-9.64958
▁معن	-9.64967
▁نشریات	-9.64974
▁ایشیاء	-9.64976
▁ہٹا	-9.65043
▁چونک	-9.6511
رون	-9.65138
▁چارٹر	-9.65158
▁فوری	-9.65206
▁صوبے	-9.65278
▁عارض	-9.65278
▁معاصر	-9.65279
حصر	-9.65279
▁ڈال	-9.65343
▁عطی	-9.65387
.1	-9.65442
▁آسان	-9.65492
ٹل	-9.65591
▁ڈیپارٹمنٹ	-9.65643
▁ہائیڈروجن	-9.65647
نج	-9.65649
▁منظر	-9.6566
▁فائل	-9.65664
▁پانچو	-9.65742
▁یقین	-9.6576
یرہ	-9.65803
▁تکنیک	-9.65872
▁نشر	-9.65957
▁مند	-9.65978
▁سگنل	-9.66009
▁ہوٹل	-9.66061
▁فنڈ	-9.66094
▁ایوارڈ	-9.6611
▁مارک	-9.66219
▁60	-9.66271
سر	-9.66483
▁بح	-9.66503
▁پن	-9.66685
لن	-9.66739
بینہ	-9.66788
▁سمت	-9.66809
▁نائٹ	-9.66847
v	-9.66932
▁دھات	-9.67028
▁یسوع	-9.67116
▁آرسنل	-9.67116
▁نسبتا	-9.67135
▁تیسرا	-9.67136
ro	-9.67183
▁B	-9.67245
▁تکنیکی	-9.67256
▁ریلیز	-9.67276
▁تخمینہ	-9.67282
▁اعزاز	-9.67488
▁حدود	-9.67505
▁ایشیائی	-9.6751
▁شراب	-9.67862
H	-9.67944
▁آٹھو	-9.67969
▁انچ	-9.68228
▁خواہش	-9.68235
▁رچمنڈ	-9.68235
▁شکاگو	-9.68235
▁فلوریڈا	-9.68235
▁عقید	-9.68323
▁وہاں	-9.68376
▁مخالفت	-9.68391
▁واقعہ	-9.6846
▁ریکارڈز	-9.68524
▁پذیر	-9.68611
▁سست	-9.6863
▁وادی	-9.68641
▁دوسر	-9.68673
نیگر	-9.68685
▁حال	-9.68696
پس	-9.68769
وار	-9.68779
ta	-9.68904
▁اسلام	-9.68951
▁ماخوذ	-9.68989
▁درست	-9.68989
▁سائنسدان	-9.68993
▁میڈیک	-9.6902
▁ڈالا	-9.69045
▁عکاسی	-9.69064
▁ممبران	-9.69107
▁یاد	-9.69203
▁پیٹر	-9.69313
▁حیدرآباد	-9.69368
▁مورخ	-9.69382
▁انڈ	-9.6939
▁ماسٹر	-9.69483
حتمی	-9.69748
▁امیدوار	-9.69754
▁پولش	-9.698
▁مشکل	-9.70021
▁چلا	-9.70032
خر	-9.70072
▁موسیقار	-9.70129
▁برما	-9.70199
▁یونیورسٹیوں	-9.7039
st	-9.70402
▁فاتح	-9.70513
▁برابر	-9.70516
▁آئرش	-9.70531
▁لبرل	-9.70578
▁آل	-9.7067
▁جیتا	-9.70829
▁لیبیا	-9.70867
10	-9.70883
▁گنی	-9.71139
لیٹ	-9.71261
▁زبانیں	-9.71281
▁ادویات	-9.71283
▁پٹ	-9.71342
▁احاطہ	-9.7141
▁برن	-9.71451
▁مخفف	-9.71671
▁تخت	-9.71671
▁بولت	-9.71885
▁شعبے	-9.71921
▁موازنہ	-9.7206
▁قرآن	-9.7206
▁1940	-9.72084
▁حیاتیاتی	-9.72097
17	-9.72373
▁کمپنیوں	-9.72378
پور	-9.72418
▁پروجیکٹ	-9.72452
▁80	-9.72512
▁بلیو	-9.72533
▁آگ	-9.72542
▁ہزار	-9.72592
▁بنات	-9.72615
▁گھنٹے	-9.72658
▁خراب	-9.72669
▁تیسر	-9.7269
▁سک	-9.72711
گراف	-9.72731
جا	-9.72779
▁خلا	-9.72837
▁کارکن	-9.72939
جر	-9.73046
▁درمیانی	-9.73055
▁چھوٹ	-9.73123
-19	-9.73142
▁فائنل	-9.73191
▁قبائل	-9.73335
ڈل	-9.73408
18	-9.73601
▁جھیل	-9.73632
▁معاہدوں	-9.73632
ā	-9.73632
▁کنونشن	-9.73632
▁محمد	-9.73639
اف	-9.73754
لین	-9.73833
▁یورو	-9.73958
▁ہسپتال	-9.74028
اخذ	-9.74056
▁ضم	-9.74102
▁ایسی	-9.74141
▁آرٹسٹ	-9.74194
▁لیبر	-9.74252
ic	-9.74354
▁محسوس	-9.74427
▁بحث	-9.74429
.8	-9.74458
▁ایجنسی	-9.74589
ٹرو	-9.74654
▁پھول	-9.74827
▁طرز	-9.74832
▁بردار	-9.74873
▁چنگ	-9.74887
ئ	-9.74954
▁پہاڑوں	-9.75029
▁غ	-9.75099
▁اکیڈمی	-9.75229
▁تقریر	-9.75229
▁ثبوت	-9.75229
پل	-9.7524
▁سنسکرت	-9.7526
▁کھیلا	-9.75263
▁کش	-9.75391
▁آفس	-9.75602
▁27	-9.75604
▁زمینی	-9.75651
▁ہیلینا	-9.75653
▁واٹر	-9.75732
ائے	-9.75767
یئر	-9.75775
um	-9.75945
▁جغرافیا	-9.76037
▁پروڈکشن	-9.76038
▁جنگل	-9.76146
▁بج	-9.76157
▁چلانے	-9.76171
▁سوچ	-9.7627
▁ممکن	-9.7637
شیاء	-9.76423
▁استعف	-9.76443
▁خودمختار	-9.76443
▁ہیڈکوارٹر	-9.76443
▁فاصلے	-9.76443
te	-9.76523
37	-9.76524
▁مسلم	-9.76819
▁خیالی	-9.76829
▁مناسب	-9.76851
▁مون	-9.76985
▁ایڈورڈ	-9.76992
▁سزا	-9.76995
▁فریم	-9.77079
▁گی۔	-9.77106
ٹیل	-9.7713
ولوجی	-9.77272
li	-9.77363
▁90	-9.77459
▁ہوگا	-9.77549
▁مداخلت	-9.77673
لیس	-9.77731
ود	-9.77883
▁زرعی	-9.78086
▁جوہری	-9.78101
it	-9.78115
▁سلوک	-9.78179
ولا	-9.78219
▁ٹرانس	-9.78253
U	-9.78311
اور	-9.78335
▁گول	-9.78401
▁یقینی	-9.78416
▁مضامین	-9.78501
▁منافع	-9.78501
▁شوارز	-9.78501
▁زراعت	-9.78502
▁تناسب	-9.78679
▁خریدا	-9.78734
تر	-9.78846
▁جانچ	-9.78899
تشدد	-9.78918
▁لباس	-9.78918
▁سیاحت	-9.7894
▁ہل	-9.78981
▁رویے	-9.79004
▁ٹیکنالوجی	-9.79062
▁پرندے	-9.79076
-1	-9.79084
▁عیسائیت	-9.79135
▁صحرا	-9.79336
▁مشور	-9.79336
▁دکھایا	-9.79343
▁بائبل	-9.79348
▁1991	-9.79349
شین	-9.79455
دو	-9.79566
ایک	-9.79636
▁سیکیورٹی	-9.79756
▁اسٹار	-9.79913
▁لاس	-9.7999
▁تقریب	-9.8007
▁لنک	-9.80155
▁ذخیرہ	-9.80178
▁وزارت	-9.80178
▁کرلیا	-9.80184
▁ٹاور	-9.80348
▁مٹی	-9.8037
-2	-9.80406
▁صومالیہ	-9.80464
سک	-9.80526
▁ابتدا	-9.8057
▁مونٹی	-9.80605
▁1930	-9.80626
داف	-9.80739
▁فلپ	-9.80784
پٹ	-9.80821
▁مستق	-9.80849
▁لقب	-9.81035
▁پنک	-9.81083
▁ہوئیں	-9.81143
--	-9.81175
▁گرا	-9.81412
33	-9.81451
▁ارکان	-9.81456
▁وائی	-9.81541
▁ہڈی	-9.81559
کار	-9.81609
▁سنبھال	-9.8182
▁مساوی	-9.81887
▁ور	-9.81949
▁وو	-9.82069
انت	-9.82131
▁تبتی	-9.82206
▁سلاو	-9.82213
▁بحال	-9.8224
▁صف	-9.82274
▁ہوگیا	-9.82357
▁سروے	-9.82365
▁جینوم	-9.82365
▁سوئس	-9.82512
▁لکھے	-9.82513
64	-9.82646
▁متحرک	-9.82748
▁بشریات	-9.82748
▁D	-9.82773
▁گریٹ	-9.82977
59	-9.82999
اق	-9.83016
▁ڈے	-9.83049
▁U	-9.83282
▁بہن	-9.83314
▁طبق	-9.83326
▁نمون	-9.8333
▁دیکھی	-9.83443
▁آرٹس	-9.83495
▁رہا۔	-9.83496
اش	-9.83618
▁تحلیل	-9.83619
▁وجوہات	-9.83619
▁سپیکٹر	-9.83619
▁پرواز	-9.83636
25	-9.83652
مام	-9.83786
الپس	-9.83798
▁جوڑت	-9.83819
▁200	-9.8389
اتی	-9.84011
▁آرکائیو	-9.84058
▁اسپیلبرگ	-9.84058
▁مختار	-9.84058
▁رچرڈ	-9.8406
▁مصروف	-9.84087
▁سونے	-9.84156
آ	-9.84161
▁شہزادہ	-9.84229
▁فورسز	-9.84295
▁ٹرین	-9.8447
▁ریزرو	-9.84499
▁خطرہ	-9.84745
os	-9.84863
▁گیل	-9.84921
▁عورت	-9.84941
▁منصوبوں	-9.84941
▁یادگار	-9.84941
▁تفریح	-9.84941
▁کیلنڈر	-9.84941
▁ہفتہ	-9.84943
60	-9.84991
▁وولٹی	-9.85178
ڈس	-9.85213
▁امیر	-9.85311
as	-9.85363
▁تشریح	-9.85385
▁حرکت	-9.85385
▁خانقاہ	-9.85385
▁ہیم	-9.85459
ائل	-9.85462
▁باکس	-9.85486
بن	-9.85504
▁تحریر	-9.85584
▁سم	-9.85593
▁ایبی	-9.8564
▁تعمیرات	-9.85658
▁تحقیقات	-9.85736
▁فر	-9.85748
▁پڑوس	-9.85767
▁انٹارکٹیک	-9.85832
▁اٹھایا	-9.85832
▁1997	-9.85843
▁والدین	-9.8601
▁چلات	-9.86106
▁مالیات	-9.86233
▁رابط	-9.86258
▁70	-9.8627
▁مہارت	-9.86281
▁وسائل	-9.86283
▁بھال	-9.86285
▁لیزر	-9.86286
▁جارہ	-9.86298
▁نوآبادیاتی	-9.86301
.9	-9.86316
یکس	-9.86327
▁واپسی	-9.86393
یری	-9.86532
▁ریپبلکن	-9.86606
▁لفٹ	-9.86607
مان	-9.86614
یر	-9.8668
▁جرائم	-9.86731
▁خالص	-9.86731
▁تیاری	-9.86739
▁ایڈیشن	-9.86763
ئین	-9.86782
V	-9.87083
▁ممتاز	-9.87183
▁پروڈیوسر	-9.87183
▁ترکی	-9.87184
▁گلوکار	-9.87185
▁روٹ	-9.87199
▁مصنفین	-9.87302
فیا	-9.87305
▁خون	-9.87334
▁500	-9.87347
▁کہتے	-9.87354
▁اپیل	-9.87425
▁آتا	-9.87443
▁چی	-9.87559
▁والنسیا	-9.87638
▁پناہ	-9.8764
▁آکس	-9.87686
▁وین	-9.87787
▁مصنوع	-9.87969
▁ایوارڈز	-9.87981
ٹیک	-9.88001
▁بندوق	-9.88094
▁کشی	-9.88175
▁انعام	-9.88204
▁زمان	-9.88214
ریٹ	-9.88439
▁شی	-9.88441
اہد	-9.88523
▁پھیلاؤ	-9.88589
▁قبیل	-9.8861
▁لوک	-9.88663
▁ایٹ	-9.88738
▁(2	-9.88773
افٹ	-9.88785
▁آہنگی	-9.88812
▁ہزاروں	-9.88848
▁بائیوٹک	-9.88976
▁متحد	-9.88995
▁ٹن	-9.89002
▁اپولو	-9.89006
▁کمر	-9.89038
▁برق	-9.89048
95	-9.89111
▁رائٹ	-9.89123
▁لیون	-9.89132
B	-9.89193
▁پلانٹ	-9.89246
▁گارڈ	-9.8932
▁مطالع	-9.89323
▁تصورات	-9.89358
▁فل	-9.89365
▁پہلو	-9.89461
▁عقائد	-9.89477
▁کیتھیڈرل	-9.89477
▁مساوات	-9.89477
▁شیئر	-9.89517
ابت	-9.89565
▁رومی	-9.89634
▁ڈیوڈ	-9.89744
وث	-9.89745
▁میٹرو	-9.90185
وپ	-9.9021
▁کثرت	-9.90409
قابو	-9.90412
▁خانے	-9.90419
▁31	-9.90421
▁انسانیت	-9.90491
▁لیڈ	-9.90493
▁ہندو	-9.9053
میائی	-9.90544
▁رائے	-9.90607
73	-9.90613
اج	-9.90683
▁اسٹون	-9.90715
سکی	-9.90754
▁R	-9.90793
80	-9.90856
▁نوآبادیات	-9.90861
▁وصول	-9.90879
▁زوال	-9.90889
اثر	-9.909
▁چارلسٹن	-9.90913
▁1920	-9.90918
▁ہانگ	-9.9097
ha	-9.91029
▁اتحادی	-9.91156
وو	-9.91177
▁مضافات	-9.9135
▁منسوخ	-9.9135
▁پودے	-9.91351
▁چل	-9.91357
▁افسران	-9.91372
▁معرو	-9.91383
▁پرانی	-9.91455
▁مشق	-9.9149
▁نیومن	-9.91502
انگ	-9.91753
na	-9.91796
▁پاؤنڈ	-9.91824
▁اریٹیریا	-9.91824
▁خفی	-9.91828
▁1998	-9.91841
▁1999	-9.91844
▁امی	-9.91854
▁بلڈنگ	-9.91871
▁ویسٹرن	-9.91873
▁بادشاہت	-9.91887
▁آسٹریلیائی	-9.91899
▁ناکامی	-9.91932
فطرت	-9.91939
انداز	-9.92095
99	-9.92099
▁تعینات	-9.92198
▁چینل	-9.92248
▁گاڑی	-9.92256
▁نظم	-9.923
un	-9.92339
.7	-9.9234
▁ٹرمینل	-9.92397
▁دیہی	-9.92403
▁برادری	-9.92479
el	-9.92649
▁کھلاڑی	-9.92702
▁ہفت	-9.92703
ni	-9.92704
▁ادبی	-9.92708
▁گن	-9.9273
se	-9.92742
▁برمودا	-9.92779
▁W	-9.92804
▁سرکٹ	-9.92839
▁عربی	-9.92858
▁انجینئرنگ	-9.92867
▁ماس	-9.92882
▁بدعنوانی	-9.92967
▁ث	-9.92982
▁کینن	-9.93006
لمبی	-9.93032
▁لگ	-9.93106
بول	-9.93114
▁نکال	-9.93233
1,	-9.93236
▁کھڑ	-9.93251
ti	-9.93413
▁مثالیں	-9.93466
.2	-9.93552
مون	-9.93561
▁ایوان	-9.93563
▁تہ	-9.93641
▁اسکوائر	-9.93743
▁تجدید	-9.93755
▁1989	-9.93755
وٹیوب	-9.93779
▁کھلاڑیوں	-9.9382
▁بانڈ	-9.93843
▁فنکار	-9.93843
48	-9.9386
▁لیس	-9.93907
▁مندر	-9.93925
فا	-9.93979
▁راستہ	-9.94067
▁گریڈ	-9.94125
▁ٹریف	-9.94143
▁عبور	-9.94229
▁رسم	-9.94239
▁بازی	-9.94239
▁ناول	-9.94246
▁بش	-9.94298
▁کیں۔	-9.9435
▁V	-9.94512
▁ڈرائیو	-9.94582
▁کان	-9.94619
▁تہذیب	-9.94716
▁نرم	-9.94729
شپ	-9.94839
▁پرستی	-9.94853
لنگ	-9.94865
70	-9.94942
▁پیٹ	-9.95163
▁امپیریل	-9.95206
▁تسلسل	-9.95206
▁شمولیت	-9.95206
▁پروفیسر	-9.95206
▁روح	-9.95231
▁منفی	-9.95257
مد	-9.95259
▁اختیارات	-9.95649
▁اجلاس	-9.95699
▁کثافت	-9.95699
▁پوائنٹ	-9.95943
ing	-9.95962
ائن	-9.961
▁ناقابل	-9.96194
▁بستی	-9.96238
▁لگت	-9.964
▁بورو	-9.96648
▁ہاتھ	-9.96653
▁ماہی	-9.96675
▁باہمی	-9.96692
▁ساخت	-9.96693
▁اعتماد	-9.96694
▁برائ	-9.96699
▁پرائمری	-9.9671
▁بہار	-9.96714
▁O	-9.96725
▁سہولت	-9.9677
▁گرمی	-9.96911
86	-9.96914
▁لوڈ	-9.96947
▁بوٹ	-9.9695
ڈون	-9.9699
▁تابکاری	-9.97191
▁کریڈٹ	-9.97192
▁پوپر	-9.97195
▁کیبل	-9.9724
▁صورت	-9.97245
▁(18	-9.97347
زو	-9.97507
55	-9.97597
▁ساتھ۔	-9.97677
▁ڈسٹرکٹ	-9.97694
34	-9.97711
▁پیل	-9.97734
ائٹ	-9.97939
ونڈ	-9.98117
G	-9.98186
▁الیگزینڈر	-9.98199
▁چیلنج	-9.98199
▁فاؤنڈیشن	-9.98203
▁سرد	-9.98365
▁انگریزوں	-9.98373
▁آمد	-9.98413
▁پروشین	-9.98464
▁علیحد	-9.98687
▁بھائی	-9.98688
▁ٹیٹو	-9.98706
▁روایات	-9.98707
▁کیلیفورنیا	-9.98707
▁گوتھک	-9.98707
▁مفت	-9.98708
▁کنارے	-9.98709
▁دشمن	-9.98764
▁وزن	-9.98813
36	-9.98829
ونگ	-9.98897
فون	-9.98909
▁نوٹری	-9.98942
▁پینٹ	-9.99003
il	-9.99019
▁مارا	-9.99051
▁ریاضی	-9.99076
▁سونی	-9.99105
▁کھیلت	-9.99111
▁انقلابی	-9.99124
▁دینا	-9.99126
ٹنگ	-9.99133
▁ایونٹ	-9.99175
▁پریسبیٹیرین	-9.99217
▁ڈیفنس	-9.99217
▁کنسول	-9.99218
▁دیوتاؤں	-9.99228
▁سینیٹ	-9.99241
▁احساس	-9.99245
▁ٹریڈ	-9.99347
یٹر	-9.99378
▁موقع	-9.9973
▁انض	-9.99759
▁فارسی	-9.99789
▁برس	-9.99981
▁لین	-10.0001
92	-10.0014
▁نوعیت	-10.0024
15	-10.0028
▁رسمی	-10.0029
▁لیک	-10.0041
ma	-10.0044
▁ڈومین	-10.0045
▁35	-10.0055
39	-10.0058
42	-10.0074
▁اکاؤنٹ	-10.0076
▁بوجھ	-10.0076
▁جائیداد	-10.0076
▁کارنیول	-10.0076
▁بلب	-10.008
▁جوزف	-10.0087
▁پہنچن	-10.009
▁اسٹاف	-10.0101
▁اقلیتی	-10.0111
▁جیک	-10.0118
▁لائنوں	-10.0127
▁تجربے	-10.0128
▁تفویض	-10.0128
▁وارسا	-10.013
▁انڈیا	-10.0133
▁29	-10.0135
▁انفیک	-10.0143
▁سیکشن	-10.0148
▁الٹ	-10.0151
▁سلاوی	-10.0151
56	-10.016
▁جنگوں	-10.0163
پول	-10.0167
▁پلیئر	-10.0167
▁ریس	-10.0177
▁پیسیفک	-10.0181
▁قوت	-10.0181
▁ہنگری	-10.0181
▁فلاڈیل	-10.0183
▁کارل	-10.0184
▁کانگو	-10.0196
▁پانے	-10.0197
▁ساتو	-10.02
▁چھٹی	-10.0213
▁ایرانی	-10.0214
▁بیسو	-10.022
▁خورد	-10.0225
▁نورفو	-10.0233
▁لکھنے	-10.0235
▁مسئل	-10.0238
ٹز	-10.0249
▁de	-10.0254
▁فورٹ	-10.0268
▁45	-10.0274
▁سیکھن	-10.0278
مخلوط	-10.0286
▁سیاست	-10.0286
▁بازنطینی	-10.0291
75	-10.0291
▁تباہی	-10.0301
▁پرنٹ	-10.0302
برا	-10.0302
▁مطالعات	-10.0302
ہم	-10.0303
▁کیمپ	-10.0303
از	-10.0308
▁شہزادی	-10.0327
ارا	-10.0328
▁فلموں	-10.0332
▁سینڈ	-10.0334
▁وران	-10.0334
لڈ	-10.0337
▁خاتمہ	-10.0339
▁اوپیرا	-10.034
▁لازمی	-10.034
▁کپڑے	-10.034
▁آپریشنز	-10.0342
▁پادری	-10.0343
▁قبض	-10.035
▁مارول	-10.0353
▁الہیات	-10.0357
▁شکلیں	-10.036
لس	-10.0364
▁بیونس	-10.038
▁II	-10.0386
ca	-10.0388
▁ورجینیا	-10.0393
68	-10.0405
▁ڈرام	-10.0405
▁قیدی	-10.0407
لر	-10.0407
سادہ	-10.0412
▁اجتماع	-10.0447
▁رضامندی	-10.0447
▁VI	-10.0447
▁خرچ	-10.0447
▁ہپ	-10.0452
▁گولی	-10.0454
▁اتحادیوں	-10.0461
▁دیں	-10.0495
▁ہدف	-10.0501
▁قدم	-10.0501
▁ریسرچ	-10.0501
مقابلہ	-10.0504
▁رہنماؤں	-10.0505
▁کینیڈین	-10.0507
▁اوور	-10.0507
▁ٹیکساس	-10.0507
ائد	-10.0509
▁طاقتور	-10.0529
▁بالترتیب	-10.0545
▁روزان	-10.0546
روس	-10.0551
پریشن	-10.0551
ٹرا	-10.0555
▁حساب	-10.0555
▁سیکرٹری	-10.0555
▁کلی	-10.0561
▁مطابقت	-10.0563
▁گرفتار	-10.0568
ساو	-10.0569
▁مقا	-10.0573
▁میری	-10.0582
▁اونچی	-10.0594
▁گھ	-10.0601
▁انفرا	-10.061
▁زائر	-10.061
▁امید	-10.0614
▁کاربن	-10.0615
مور	-10.0622
پیک	-10.0627
▁انتظامی	-10.063
▁مسافروں	-10.063
▁اصطلاحات	-10.0644
▁ماؤنٹ	-10.0656
▁ایو	-10.0657
▁درآمد	-10.0665
▁معمار	-10.0665
▁پروٹین	-10.0666
▁ہاپ	-10.0671
.4	-10.0686
▁فیشن	-10.0687
▁اداکار	-10.0688
▁تنوع	-10.0692
▁است	-10.072
▁پاکستان	-10.072
▁پرنس	-10.0725
انس	-10.0739
رام	-10.0742
▁تاز	-10.0746
▁تحریری	-10.0751
▁معیارات	-10.0754
▁کٹ	-10.0758
وواہ	-10.0774
▁تقرری	-10.0776
▁ردعمل	-10.0776
▁صحیح	-10.0776
▁صورتحال	-10.0776
▁معدوم	-10.0776
▁نائب	-10.0779
▁شخصیت	-10.0783
▁تنازع	-10.0783
▁جارجیا	-10.0784
▁مقبولیت	-10.0784
▁ریٹ	-10.0789
▁ڈیوک	-10.0793
▁طبی	-10.0806
98	-10.0819
▁طیار	-10.0819
▁وراثت	-10.0831
▁محبت	-10.0833
▁بیجنگ	-10.0847
▁بہتری	-10.0852
▁دستاویزات	-10.0852
▁مس	-10.0858
46	-10.0863
▁نشست	-10.0871
▁بادشاہوں	-10.0878
▁جم	-10.0879
▁ذخائر	-10.0888
▁عرفی	-10.0888
▁نصوص	-10.0888
▁شان	-10.0888
▁حوال	-10.0899
nd	-10.0905
ng	-10.091
▁شری	-10.091
▁نسلوں	-10.0917
فیئر	-10.0917
▁عملے	-10.0921
ینٹ	-10.0923
▁ام	-10.0931
▁ٹرانسمیشن	-10.0944
▁مجرم	-10.0944
▁ایشیا	-10.0946
▁چلایا	-10.0953
▁کورک	-10.0964
▁بمباری	-10.0965
▁بیورو	-10.0973
شم	-10.0975
▁بیٹی	-10.0984
▁ٹری	-10.0991
▁سوال	-10.0996
▁انڈسٹری	-10.1001
▁اسرائیلی	-10.1002
▁ہفتوں	-10.101
▁آبائی	-10.1012
▁فورا	-10.1013
▁ویلز	-10.102
▁مائیکروس	-10.1033
▁ایریا	-10.1036
این	-10.104
▁باشندے	-10.1042
▁معلوم	-10.1045
▁رہ	-10.1047
▁رکھے	-10.1055
ائزیشن	-10.1058
کھٹمنڈو	-10.1058
▁اسفالٹ	-10.1058
▁امتیاز	-10.1058
▁تووالو	-10.1058
▁براؤن	-10.1059
یکل	-10.1065
▁ڈین	-10.1075
▁اسکالرز	-10.108
▁عوامل	-10.1087
▁کارڈینل	-10.1088
si	-10.1089
یلا	-10.1091
▁لسانی	-10.1103
▁کلبوں	-10.1108
▁سوچا	-10.1115
▁اتھارٹی	-10.1115
▁عبادت	-10.1115
▁مراکز	-10.1116
▁راہب	-10.1117
▁بیٹا	-10.1139
j	-10.1147
ایس	-10.1149
▁ہیٹن	-10.1151
▁باقیات	-10.1152
▁غلامی	-10.116
▁پرفارم	-10.1163
▁رن	-10.1165
▁اع	-10.1169
ینا	-10.1173
▁ادائیگی	-10.1173
▁ویتنام	-10.1173
▁ہوچک	-10.1174
81	-10.1175
▁تغیرات	-10.1177
▁گنا	-10.1179
▁برلن	-10.118
ریس	-10.1181
نور	-10.1182
▁آٹو	-10.1184
▁شکاریوں	-10.1187
▁ہیرو	-10.1208
▁تجرباتی	-10.1212
▁فرنٹ	-10.1217
▁بنے	-10.1231
▁یوکرائن	-10.1231
▁نینٹینڈو	-10.1231
▁ٹائٹل	-10.1232
▁فرینک	-10.1245
▁میٹا	-10.1251
ڑھ	-10.1268
49	-10.128
الا	-10.1285
▁L	-10.1287
▁ڈالن	-10.1288
▁پھل	-10.129
▁خاتون	-10.129
▁پیروکار	-10.1291
لٹ	-10.1293
▁کیشنز	-10.1294
▁آدھ	-10.1295
▁تجربات	-10.131
▁طیارے	-10.1311
▁ڈبل	-10.1316
سٹی	-10.1321
53	-10.1326
▁چوتھی	-10.1326
79	-10.133
▁مادہ	-10.1333
سٹن	-10.1347
▁غلطی	-10.1348
▁راؤنڈ	-10.1349
▁یوگوسلاویہ	-10.1349
▁1945	-10.1351
پلا	-10.1359
▁ڈاک	-10.1359
▁منگول	-10.1364
▁(3	-10.1379
▁چوتھ	-10.1387
▁ٹیمیں	-10.1394
▁منٹ	-10.1407
▁ماضی	-10.1408
▁متنازع	-10.1408
▁منشیات	-10.1408
▁بخش	-10.1408
▁فصل	-10.1408
ابط	-10.1412
سٹین	-10.1413
13	-10.1414
▁مقناطیسی	-10.1418
ئے	-10.1418
▁نامی	-10.1428
▁ون	-10.1429
,000	-10.1431
شر	-10.1438
id	-10.1441
کشن	-10.1441
▁(1	-10.1448
et	-10.1458
▁کھول	-10.1461
▁سیکنڈ	-10.1463
▁تصاویر	-10.1467
▁مضمون	-10.1467
سین	-10.1473
▁روان	-10.1475
▁بڑھایا	-10.1479
▁زد	-10.1487
ph	-10.1495
▁ڈیک	-10.1505
▁پڑھن	-10.1507
▁ایورٹن	-10.1527
▁اجداد	-10.1527
▁میڈیسن	-10.1528
▁1988	-10.1529
▁گوام	-10.153
85	-10.153
▁سامعین	-10.1531
نیہ	-10.1541
43	-10.1547
▁نیم	-10.1549
ter	-10.1571
اری	-10.1575
▁کینس	-10.1579
▁لئے۔	-10.158
▁منفرد	-10.1588
▁باس	-10.1588
▁ایسڈ	-10.1595
▁فرد	-10.1596
▁پیانو	-10.1601
▁لائیو	-10.1603
▁حریف	-10.1604
51	-10.1608
▁پیرا	-10.1617
برٹ	-10.1624
▁چارج	-10.1627
▁رکھا۔	-10.1628
▁ایمان	-10.1643
W	-10.1645
▁لاک	-10.1646
...	-10.1648
▁خدش	-10.1648
▁نمک	-10.1648
▁1979	-10.165
▁1939	-10.1651
▁پڑوسی	-10.1657
بندی	-10.1659
▁ہلک	-10.1661
19	-10.1669
▁ہوگیا۔	-10.1681
▁بیماریوں	-10.17
میٹ	-10.1705
▁بپٹسٹ	-10.1709
▁جدوجہد	-10.1709
▁شرائط	-10.1709
▁کائنات	-10.171
▁ڈانس	-10.1712
▁خریداری	-10.1717
▁اراد	-10.1721
67	-10.1726
ائز	-10.1729
54	-10.173
ضو	-10.1731
▁آہنگ	-10.1736
▁میموری	-10.1753
▁تشخیص	-10.177
▁ساؤنڈ	-10.177
▁معامل	-10.1771
▁1994	-10.1772
▁گوشت	-10.1772
91	-10.1776
▁ہائیڈرو	-10.1797
52	-10.18
رومیوں	-10.1806
▁اصلاح	-10.1819
اعت	-10.1826
▁عیسائیوں	-10.1831
▁طلب	-10.1832
ڈم	-10.1834
▁فلپائن	-10.1835
▁2016	-10.1835
▁اہتمام	-10.1837
▁خلیج	-10.1843
تقریبا	-10.1852
▁اوک	-10.186
فل	-10.1867
▁گیٹ	-10.1873
di	-10.1889
ثر	-10.189
96	-10.1891
▁سیاح	-10.1891
▁انکشاف	-10.1894
▁جھنڈ	-10.1894
▁صوبہ	-10.1894
▁لائف	-10.1894
▁سفارش	-10.1895
یات	-10.1905
کون	-10.1914
اط	-10.1917
vi	-10.1926
▁خزا	-10.1926
▁ہیل	-10.1933
▁جانشین	-10.1934
▁(200	-10.1934
▁پرو	-10.1936
▁اسٹریٹج	-10.1938
▁بنانا	-10.1938
▁تار	-10.1946
نیس	-10.1947
▁مول	-10.1949
▁گریجویٹ	-10.1952
▁ریستوراں	-10.1957
▁قسطنط	-10.1957
▁جانبدار	-10.1957
▁مدرس	-10.1957
▁1941	-10.1959
▁دب	-10.1975
▁خلی	-10.1978
▁اشکنازی	-10.198
شا	-10.1985
▁طب	-10.1989
وسیا	-10.1996
ٹیو	-10.2005
▁ویک	-10.2014
▁ڈیوائس	-10.202
▁پرفارمنس	-10.2022
▁فاکس	-10.2022
▁1995	-10.2022
▁گیلری	-10.2027
▁بیرون	-10.203
▁پلان	-10.2037
▁تھرم	-10.2048
▁برج	-10.207
سیپ	-10.2076
رم	-10.2078
▁BYU	-10.2083
▁طبیعی	-10.2083
▁1949	-10.2085
▁اولاد	-10.2085
▁ازم	-10.2088
83	-10.2089
▁بور	-10.209
▁رنگین	-10.2092
▁مائیکل	-10.2094
45	-10.2095
26	-10.2096
پورٹ	-10.2096
▁کنی	-10.2097
▁جذباتی	-10.2099
خالی	-10.21
▁پینٹنگ	-10.2101
ed	-10.2104
یٹس	-10.2107
▁ہوگی	-10.211
▁+	-10.2134
▁فرش	-10.2145
▁اشتہار	-10.2147
▁بزنس	-10.2147
▁اطلاق	-10.2148
▁پھیلا	-10.216
▁ماں	-10.2162
35	-10.2172
▁فلسف	-10.2195
▁دیوتا	-10.221
▁لیبارٹری	-10.2211
▁منسٹر	-10.2218
▁جیفر	-10.2221
41	-10.2224
▁یعنی	-10.2225
▁پا	-10.2238
▁360	-10.2247
69	-10.2248
▁آسانی	-10.2255
▁بلاک	-10.2262
▁باب	-10.2267
90	-10.2269
▁پیس	-10.2269
12	-10.227
66	-10.2271
▁کنفیڈریشن	-10.2275
▁ٹھنڈ	-10.2275
▁میزائل	-10.2276
▁سماعت	-10.2276
▁سوانح	-10.2276
▁ایجنٹ	-10.2278
▁الکا	-10.2284
▁سانٹا	-10.2284
▁مو	-10.2285
▁مینوفیکچر	-10.23
▁گروہ	-10.2321
▁نسب	-10.2328
J	-10.2331
21	-10.2332
▁میس	-10.2332
▁ٹکڑے	-10.2339
▁مواقع	-10.234
▁اینگلو	-10.234
▁سوازی	-10.234
▁چیئرمین	-10.2341
▁1974	-10.2342
▁1987	-10.2342
▁داخلہ	-10.2372
▁پابند	-10.2375
▁بیڑے	-10.2378
27	-10.239
▁الیکٹرانک	-10.2392
▁گان	-10.2402
▁احکامات	-10.2406
▁ابھی	-10.2409
▁رکھ	-10.2411
▁جمہوریت	-10.2414
▁بہ	-10.2416
77	-10.2417
▁لوہ	-10.2424
▁ٹرسٹ	-10.2424
▁چھٹ	-10.2433
ol	-10.2443
▁شیر	-10.2453
▁بائیو	-10.2456
▁ٹوٹ	-10.247
▁ترغیب	-10.2471
▁تھوڑ	-10.2471
▁بتایا	-10.2471
▁انٹیلی	-10.2472
▁1996	-10.2474
ینڈ	-10.2474
▁جرم	-10.2478
▁اتنا	-10.2488
▁اقلیت	-10.2493
▁کوانٹ	-10.2497
pa	-10.251
▁ماد	-10.2518
یوس	-10.2519
▁کھلا	-10.2521
نصب	-10.2526
▁رقص	-10.2538
▁میوزیک	-10.2538
▁تقریباً	-10.2539
▁اسٹاپ	-10.2539
▁1969	-10.254
▁کسانوں	-10.2544
▁ٹکڑ	-10.2553
▁جائے۔	-10.2555
▁پینل	-10.2557
▁خرابی	-10.2567
ریج	-10.2583
میر	-10.2585
آئی	-10.2586
87	-10.2587
▁زمر	-10.2588
▁جلا	-10.26
▁آرکسٹرا	-10.2604
▁پروشیا	-10.2605
47	-10.2607
▁آئن	-10.2608
800	-10.2612
am	-10.2624
▁کارڈ	-10.2635
وکس	-10.2639
تنوع	-10.2647
ci	-10.2647
نیٹ	-10.2652
▁برآمد	-10.2653
▁صارف	-10.2663
▁فال	-10.2665
▁گھڑی	-10.2667
▁رضاکار	-10.2671
▁عالمگیر	-10.2671
▁موصول	-10.2671
▁کنندہ	-10.2671
to	-10.2671
▁جامع	-10.2672
▁اڈوں	-10.2672
▁سوشلسٹ	-10.2676
24	-10.2679
▁باڈی	-10.2681
▁گیمز	-10.2684
▁سوئ	-10.2689
▁تقریبات	-10.2693
▁لانگ	-10.2694
16	-10.2696
▁ملٹی	-10.2696
▁چارٹ	-10.2701
▁$	-10.2702
▁فلیٹ	-10.2703
▁گال	-10.2707
▁گور	-10.2713
▁ایکڑ	-10.2716
▁توڑ	-10.2723
مت	-10.2724
▁باغی	-10.2724
▁توثیق	-10.2739
▁محرک	-10.2739
▁نایاب	-10.2739
▁ڈاؤن	-10.274
▁فلکیات	-10.2743
▁ابن	-10.2743
▁مک	-10.2753
▁خان	-10.2756
▁مع	-10.2762
▁قربانی	-10.2765
▁کولمبی	-10.2767
مار	-10.2768
کرافٹ	-10.2775
▁نیلے	-10.2781
▁سہ	-10.2785
ثا	-10.2788
ظہ	-10.2796
▁سڑکوں	-10.2801
▁آدمی	-10.2807
▁بیکٹیریل	-10.2807
▁اسکرین	-10.2808
امی	-10.2809
▁اضلاع	-10.2809
▁1992	-10.281
▁کوریائی	-10.2817
no	-10.2821
بھ	-10.2841
▁غذائی	-10.2867
▁سیار	-10.2873
▁ہو۔	-10.2874
میانمار	-10.2876
▁تھلگ	-10.2876
▁اعتراض	-10.2876
▁سہول	-10.2876
▁1993	-10.2877
مکینیکل	-10.2877
▁جشن	-10.2878
▁پہاڑ	-10.2883
▁نگار	-10.2886
ائیڈ	-10.2886
ورڈ	-10.2889
▁لگا	-10.2891
▁افسان	-10.2892
باما	-10.2903
▁سور	-10.2908
ولی	-10.2917
▁قدر	-10.2927
▁حکومتوں	-10.2939
▁فیڈریشن	-10.2944
▁محقق	-10.2944
é	-10.2944
▁سیکولر	-10.2945
▁اسٹاک	-10.2945
ناظر	-10.2947
▁لیمپ	-10.2949
▁جوڑنے	-10.2952
▁ہن	-10.2964
▁فرانسس	-10.2966
▁ہیلی	-10.2967
یاتی	-10.297
اخ	-10.2975
▁دوڑ	-10.2989
وچ	-10.2994
شتر	-10.3004
▁پڑا۔	-10.3006
▁نوعمر	-10.3014
▁انڈیکس	-10.3015
▁1977	-10.3016
▁ریور	-10.3022
ul	-10.3023
▁300	-10.3027
بری	-10.3029
▁ڈسٹ	-10.3046
▁پورٹو	-10.3047
ہال	-10.3048
بھار	-10.3049
▁ہوگا۔	-10.3054
▁بمبار	-10.3058
▁ضروریات	-10.3058
▁بیٹری	-10.3061
▁75	-10.3061
▁1000	-10.3062
▁بناتی	-10.3072
▁اسٹورز	-10.3072
▁خوبصورت	-10.3084
▁غریب	-10.3084
▁سالگرہ	-10.3084
▁اسمتھ	-10.3085
▁فرض	-10.3086
▁موڑ	-10.3086
▁1985	-10.3086
▁1948	-10.3087
▁الیکٹرو	-10.3088
چم	-10.309
آر	-10.3092
▁شاعری	-10.3103
واں	-10.3119
▁ریاستیں	-10.3121
▁a	-10.3123
76	-10.3125
▁سزائ	-10.3129
▁اسٹیل	-10.3129
01	-10.3137
14	-10.3141
74	-10.3142
گین	-10.3145
▁مالیکیول	-10.3154
▁اسٹوریج	-10.3154
▁بہاؤ	-10.3156
▁150	-10.3156
▁1976	-10.3156
کنز	-10.3158
توقع	-10.3171
▁بجے	-10.3172
▁پہنچے	-10.3174
▁تھیم	-10.3175
▁اسپیس	-10.3188
▁مڈ	-10.319
ہل	-10.3194
▁چوتھا	-10.32
▁عراق	-10.32
71	-10.3206
▁اہ	-10.3216
گریٹر	-10.3218
▁دسو	-10.322
ce	-10.322
▁ایندھن	-10.3225
▁The	-10.3226
▁حیر	-10.3227
▁پیپل	-10.3241
▁لڑک	-10.3241
▁زخمی	-10.3252
▁پک	-10.326
▁منی	-10.3263
▁اسکالر	-10.3269
▁لیو	-10.3274
▁لکھت	-10.3279
▁مارنے	-10.3286
va	-10.3289
▁سوشل	-10.3293
▁اعتراف	-10.3297
▁صوبوں	-10.3297
▁مریض	-10.3297
▁ڈومینیکن	-10.3297
▁چیپل	-10.3298
▁پنجاب	-10.3299
▁ایٹم	-10.3299
▁ملازمین	-10.3302
مونٹ	-10.3304
▁مارٹن	-10.3311
ران	-10.3326
▁تال	-10.3326
▁(16	-10.3329
شو	-10.3329
ریڈ	-10.3338
▁بیج	-10.3343
▁خوش	-10.3345
ian	-10.3346
58	-10.3359
▁ضبط	-10.3369
▁اسکائی	-10.337
▁گری	-10.3372
▁میٹ	-10.3383
▁باسک	-10.3387
▁باپ	-10.3388
یگ	-10.3394
قاعدہ	-10.3403
بس	-10.3403
29	-10.3413
▁لڑن	-10.3416
▁اولمپکس	-10.3421
▁دوا	-10.3431
▁اشتراک	-10.3441
▁برطرف	-10.3441
▁متوازی	-10.3441
▁اسپورٹس	-10.3441
▁پروٹوکول	-10.3441
▁اسکرپٹ	-10.3442
▁رابطہ	-10.3446
▁تاجروں	-10.345
▁اسکیم	-10.3453
▁ایڈیٹر	-10.3454
بین	-10.3456
▁اونچا	-10.3459
نین	-10.346
جمنٹ	-10.3461
▁سومری	-10.3469
ho	-10.3471
جین	-10.3472
▁ڈائ	-10.3473
11	-10.3478
▁چا	-10.3481
2)	-10.3482
63	-10.3485
▁120	-10.3487
▁آرام	-10.3488
▁پاک	-10.3493
▁افسانو	-10.3496
ka	-10.3506
اؤن	-10.3509
حسین	-10.351
▁مدمقابل	-10.3514
▁زبردست	-10.3514
▁ڈھانچہ	-10.3514
▁صاف	-10.3514
▁ہنگام	-10.3514
▁تلفظ	-10.3515
co	-10.3519
▁باؤل	-10.352
▁میڈ	-10.3528
میبیا	-10.3533
88	-10.3536
▁(5	-10.354
▁تبدیلیاں	-10.3543
▁مونٹان	-10.3546
▁دہائیوں	-10.3557
▁پرجاتی	-10.3558
▁سرپرست	-10.3565
57	-10.3568
پن	-10.3568
لامتی	-10.357
▁انجینئر	-10.3574
▁نقصانات	-10.3586
▁تناؤ	-10.3588
▁ڈھک	-10.3588
▁روزگار	-10.3588
▁1971	-10.359
▁چاندی	-10.359
▁سائیڈ	-10.3591
▁دف	-10.3596
فو	-10.36
▁قومیت	-10.3613
در	-10.3616
▁کمپیوٹرز	-10.3616
▁(4	-10.3621
راد	-10.3629
K	-10.3631
ڈیل	-10.364
▁بائ	-10.3642
▁ایر	-10.365
زن	-10.3654
نگٹن	-10.3658
▁نقش	-10.3662
▁منایا	-10.3662
▁جائیں	-10.3662
▁تکمیل	-10.3662
▁اینجل	-10.3663
▁ایسٹونین	-10.3665
▁پریشانی	-10.3669
ذہ	-10.3673
▁خام	-10.3675
ولین	-10.3681
ایم	-10.3687
▁پس	-10.3703
72	-10.3705
▁ریلی	-10.3707
▁لائی	-10.3709
ولر	-10.3715
▁ڈور	-10.372
▁£	-10.3722
▁پادریوں	-10.3732
▁انتقال	-10.3736
▁پیغام	-10.3736
▁قطب	-10.3736
▁یونیکو	-10.3738
نگھم	-10.3739
تائیوان	-10.3743
▁پہلوان	-10.3743
ائزڈ	-10.3746
▁رول	-10.3747
▁بنتا	-10.3747
▁ایلن	-10.3763
mi	-10.3765
▁ارب	-10.377
▁جنگجو	-10.3774
▁ریکو	-10.3783
▁مسافر	-10.3783
▁سیکسن	-10.3783
▁شاعر	-10.3791
اپ	-10.3792
▁پید	-10.3797
▁رگ	-10.3798
ə	-10.3809
▁دفاتر	-10.3811
▁ہنوور	-10.3811
▁تاخیر	-10.3812
▁گریگوری	-10.3815
▁پرت	-10.3816
▁سلطان	-10.3816
▁نامزدگی	-10.3817
بوط	-10.3817
▁فرسٹ	-10.3818
▁مضبوطی	-10.3827
▁ناک	-10.3827
▁نوبل	-10.3829
▁بازو	-10.3831
▁نازی	-10.3832
رٹ	-10.3834
▁جنگلات	-10.3838
Z	-10.3844
شائر	-10.3847
ذکر	-10.3851
▁جیانگ	-10.3872
▁نقا	-10.3883
▁اشنکٹ	-10.3887
▁متضاد	-10.3887
▁ویکیوم	-10.3887
▁اقدار	-10.3888
▁ورث	-10.3888
28	-10.3888
▁سچائی	-10.3889
▁خوف	-10.389
▁مائکرو	-10.3891
5،000	-10.3891
فور	-10.3894
▁تفصیلات	-10.3899
ورس	-10.3906
sa	-10.3914
▁ٹام	-10.392
▁موڈ	-10.3924
po	-10.3926
رات	-10.3928
ck	-10.3929
بکس	-10.3932
ٹوری	-10.3934
لیو	-10.3936
ورکس	-10.3941
▁قید	-10.3944
▁الہی	-10.3945
▁ایتھلیٹک	-10.3964
▁بدنام	-10.3964
▁مکوڑ	-10.3964
▁اسٹائل	-10.3965
▁1944	-10.3965
▁ماؤنٹین	-10.3978
▁شد	-10.3978
▁جونیئر	-10.3979
▁سوار	-10.3984
ent	-10.3984
62	-10.3987
▁کامکاسٹ	-10.3997
▁مونو	-10.4002
▁ثان	-10.4005
▁جوڑے	-10.4015
▁معمول	-10.4022
▁دھمکی	-10.404
▁برتن	-10.4041
▁وعدہ	-10.4041
ایوسینا	-10.4041
▁رواج	-10.4042
▁پنکھ	-10.4042
▁مذم	-10.4044
یکا	-10.4051
▁الی	-10.4051
گوٹ	-10.4054
▁X	-10.4061
89	-10.4062
▁شا	-10.4063
▁کاشت	-10.4071
▁مرکبات	-10.4075
▁توپ	-10.4096
▁کلو	-10.4098
▁65	-10.4102
▁پیسہ	-10.4102
▁الیکٹران	-10.4104
▁بگ	-10.4115
▁آلودگی	-10.4118
▁بٹومین	-10.4118
▁ہند	-10.4118
▁ضمانت	-10.4119
▁طول	-10.4119
▁ساموا	-10.4121
▁فریق	-10.4121
▁ہوگئیں	-10.4122
▁بدعت	-10.4127
▁سین	-10.4132
▁ایپ	-10.4133
▁بھاگ	-10.4137
▁ٹھو	-10.4145
▁منزل	-10.4148
ٹرز	-10.4154
▁پرستوں	-10.4158
▁مجسمہ	-10.4161
▁سولو	-10.4163
▁Ma	-10.4166
▁ٹائ	-10.4179
▁سینا	-10.418
▁کوچ	-10.4187
قدام	-10.4192
23	-10.4193
اصر	-10.4194
▁مطلوب	-10.4196
▁مفروض	-10.4196
▁معطل	-10.4196
▁وغیرہ	-10.4196
▁اموات	-10.4196
▁راغب	-10.4196
▁انگور	-10.4197
پلیکس	-10.4198
کاری	-10.4198
▁دوچار	-10.4199
▁1917	-10.42
▁فیس	-10.4204
▁اتنی	-10.4208
نسوب	-10.421
▁دائ	-10.4211
▁کنٹری	-10.4211
▁اخبارات	-10.423
man	-10.4237
▁برون	-10.4247
78	-10.4249
▁انجن	-10.4251
ائٹس	-10.4252
▁گھران	-10.4254
▁400	-10.4256
▁ٹول	-10.4259
گریشن	-10.427
▁افعال	-10.4275
▁گراؤنڈ	-10.4275
▁یونائیٹڈ	-10.4275
▁جارح	-10.4275
▁عمودی	-10.4275
▁مثالی	-10.4276
).	-10.4276
▁1964	-10.4278
▁اپنانے	-10.4279
سیس	-10.4279
▁نہاد	-10.428
ریم	-10.4281
▁شق	-10.4291
ینو	-10.4292
▁فلمیں	-10.4293
نان	-10.4294
▁ٹائپ	-10.4301
▁ہوگی۔	-10.4304
کرات	-10.4305
زین	-10.4306
سلی	-10.4309
ts	-10.4313
ویٹ	-10.4315
▁سیمی	-10.4342
▁بیوی	-10.4343
ː	-10.4354
▁ایڈجسٹ	-10.4354
▁اکٹھ	-10.4354
▁آئلینڈ	-10.4355
▁ریجن	-10.4355
▁1972	-10.4356
▁پہلوؤں	-10.4357
▁نیپال	-10.436
▁1900	-10.4365
رڈ	-10.4373
▁سینٹی	-10.4378
▁فلور	-10.4391
▁گریز	-10.4392
▁فوڈ	-10.4398
▁بیر	-10.4399
▁32	-10.4404
▁پروٹو	-10.4411
▁آرچ	-10.4413
پین	-10.4419
آن	-10.4419
▁فیڈ	-10.4421
▁تفصیل	-10.4422
▁متعد	-10.4426
▁میساچوسٹس	-10.4434
▁کرسٹل	-10.4435
▁مرتب	-10.4436
▁انجیل	-10.4436
mo	-10.4438
▁آئس	-10.4438
tu	-10.4447
▁غذائیت	-10.4447
نٹس	-10.4453
پیاں	-10.4454
سٹریٹ	-10.4456
فن	-10.446
▁بوس	-10.4469
روی	-10.448
▁گولڈ	-10.4487
97	-10.4497
▁کھپت	-10.4515
▁مذاہب	-10.4515
▁سکاٹ	-10.4515
▁آئل	-10.4515
▁پمپ	-10.4516
▁میجر	-10.4517
▁1918	-10.4519
▁دمہ	-10.4524
▁بھرتی	-10.4531
▁مدار	-10.4538
▁خلیات	-10.4545
im	-10.4546
▁پیری	-10.4549
ٹیکل	-10.4554
نویں	-10.4558
65	-10.456
▁یہودیت	-10.4569
▁کیپ	-10.457
یئس	-10.457
05	-10.4571
ve	-10.4572
▁سفارت	-10.4584
▁(20	-10.4587
ظاہر	-10.459
ٹھ	-10.4592
سٹک	-10.4592
کوس	-10.4594
▁کرو	-10.4595
▁ٹیک	-10.4596
▁1961	-10.4596
▁انٹرٹینمنٹ	-10.4596
▁یکساں	-10.4597
▁ہاٹ	-10.4598
▁میونسپلٹی	-10.4598
▁1978	-10.4598
▁1967	-10.4599
▁نیل	-10.4609
▁ذہن	-10.4614
▁ڈیٹ	-10.4615
▁حراستی	-10.4618
▁نہر	-10.4618
▁ایسٹر	-10.462
▁لڑکی	-10.4625
▁ٹیسٹنگ	-10.4634
اکا	-10.4649
▁چھت	-10.4661
▁اخلاقی	-10.4666
▁موس	-10.4674
▁صلیبی	-10.4675
موبائل	-10.4678
▁اوسطاً	-10.4678
▁ایکسپلورر	-10.4678
▁ہاتھوں	-10.4685
راس	-10.4691
▁عقیدہ	-10.4701
▁جمہوری	-10.4702
▁ہلاکت	-10.4706
ائب	-10.4711
قین	-10.4712
me	-10.4724
یئن	-10.4735
▁اداکاری	-10.4741
وسٹ	-10.4742
▁تھیوری	-10.4745
▁عدالتی	-10.4755
▁رکھی۔	-10.4757
08	-10.4758
رمو	-10.4758
▁آئر	-10.476
▁دستبردار	-10.4761
▁پارلیمانی	-10.4761
▁دکان	-10.4761
▁1984	-10.4763
▁سوائ	-10.4763
▁(17	-10.4763
رگو	-10.4764
▁فرم	-10.4765
▁نمونہ	-10.477
▁شیڈول	-10.4775
ge	-10.4778
ٰ	-10.4778
مثال	-10.4786
لانے	-10.4789
▁جیو	-10.4799
▁الزامات	-10.4801
▁نکل	-10.481
▁ٹیکنالوجیز	-10.4815
▁ایوی	-10.4829
▁ہٹان	-10.483
▁تھری	-10.4831
ڈرو	-10.4837
▁ٹرانز	-10.4843
▁ڈویلپمنٹ	-10.4844
قطع	-10.4844
▁گہری	-10.4844
▁رائن	-10.4846
▁شکای	-10.4847
▁1973	-10.4848
▁ڈک	-10.4848
▁آرتھر	-10.4849
▁چک	-10.4852
▁ڈری	-10.4854
ینز	-10.4857
▁پہنچایا	-10.4862
▁کارڈینلز	-10.4884
▁پریڈ	-10.4894
ut	-10.4896
▁الب	-10.4904
▁کیبس	-10.491
▁آپریٹ	-10.4915
▁جانسن	-10.492
α	-10.4928
▁قزاق	-10.4928
▁ٹرانسپورٹ	-10.4929
▁سینئر	-10.4929
▁واقفیت	-10.4929
▁معدنیات	-10.4932
▁افسر	-10.4941
93	-10.4946
▁گزرت	-10.495
▁میموریل	-10.4953
یسی	-10.4964
▁ماری	-10.4966
▁ویو	-10.4974
▁بیسن	-10.498
ھی	-10.4995
▁ڈا	-10.4999
▁میرین	-10.5004
لیم	-10.5007
▁ہوجائے	-10.5013
▁مینیجر	-10.5013
▁اسپیڈ	-10.5013
▁بدتر	-10.5014
▁1966	-10.5016
▁دیکھت	-10.5027
▁بارہو	-10.5031
▁مانچ	-10.5032
▁ٹیبل	-10.5035
نکس	-10.5038
▁سرنگ	-10.505
▁لینڈنگ	-10.5053
▁پہچان	-10.5057
▁تائی	-10.5058
▁البمز	-10.5072
▁سنڈ	-10.5076
32	-10.5076
▁چلائی	-10.5079
▁ذہنی	-10.5082
قاد	-10.5088
▁کوریج	-10.5092
▁برانڈ	-10.5098
▁سوراخ	-10.5099
▁کشتی	-10.5102
▁کھلے	-10.5109
▁گارڈن	-10.512
▁گھنٹ	-10.5121
▁وینس	-10.5122
کوک	-10.5125
▁تز	-10.5125
▁جگہوں	-10.5128
▁گیری	-10.5128
▁اسٹیج	-10.5139
▁مذا	-10.5142
فیفا	-10.5143
▁ایڈی	-10.5165
▁38	-10.5169
▁لائنز	-10.5175
▁مباحث	-10.5185
ۃ	-10.5185
▁احترام	-10.5185
▁تدفین	-10.5185
▁مفاد	-10.5185
▁ٹرانسمیٹر	-10.5185
▁پائلٹ	-10.5185
▁1986	-10.5188
▁مماثلت	-10.5189
▁رکنیت	-10.519
▁تعلیمات	-10.5194
▁تکلیف	-10.5196
▁گرامر	-10.5201
اڈا	-10.5205
لیب	-10.5216
▁دعوت	-10.5227
بچپن	-10.5233
ؤ	-10.5236
ولو	-10.5242
▁مالا	-10.5246
▁ینگ	-10.5248
بصری	-10.526
▁پریشان	-10.5264
do	-10.5268
احل	-10.527
▁کورس	-10.5271
▁عرض	-10.5272
▁ریٹائر	-10.5272
▁نکولس	-10.5272
▁جرسی	-10.5272
ینالاگ	-10.5272
▁ریفرن	-10.5272
▁روحانی	-10.5274
▁1914	-10.5274
▁1975	-10.5275
▁یوآن	-10.5276
▁فرانسسکو	-10.528
▁شائ	-10.5283
▁پریمیر	-10.5284
▁علی	-10.5288
▁لیتے	-10.5289
توفی	-10.5291
▁بچت	-10.5292
الو	-10.5294
ad	-10.5303
▁ہالی	-10.5304
ویانا	-10.5308
اوی	-10.5308
▁کاسٹ	-10.531
▁مجسم	-10.5311
▁واک	-10.5314
▁گزر	-10.5314
وانا	-10.5317
▁روسیوں	-10.5319
اکی	-10.532
▁لیٹر	-10.5324
▁اٹھ	-10.5324
de	-10.5325
مسٹر	-10.5325
1860	-10.5332
▁نشا	-10.5338
▁ریک	-10.5346
ونک	-10.5352
▁نمائند	-10.5353
▁محافظ	-10.5359
▁1982	-10.5359
▁ارضیات	-10.5359
▁ناقد	-10.5359
▁فیکلٹی	-10.5359
▁غذا	-10.5359
▁بتائیں	-10.5359
داشت	-10.536
▁اسٹریم	-10.536
▁حصول	-10.5361
▁ایتھن	-10.5362
▁آکسائڈ	-10.5364
▁ملحقہ	-10.5366
▁44	-10.5379
بار	-10.5395
▁دیں۔	-10.5398
▁ثانیہ	-10.54
طف	-10.5415
▁بیلٹ	-10.5421
▁78	-10.5428
▁فنکشن	-10.5433
▁لنکا	-10.5448
▁BeiDou	-10.5448
▁صبح	-10.5448
▁میکسیکن	-10.5448
▁انٹرفیس	-10.5448
▁آفیسر	-10.5449
▁1981	-10.5451
▁پروسیسنگ	-10.5452
الکان	-10.5452
▁خبر	-10.5459
he	-10.5459
▁موز	-10.5464
▁لمبا	-10.5471
▁تصادم	-10.5475
پری	-10.5481
▁موضوعات	-10.5485
▁اناج	-10.5488
▁اسکندر	-10.5506
94	-10.5519
▁ریپ	-10.5529
▁ناقص	-10.5537
▁حامل	-10.5537
▁خیراتی	-10.5537
▁سیاستدان	-10.5537
▁of	-10.5538
▁اوقیانوس	-10.5538
▁پتل	-10.5538
▁1963	-10.554
▁پیر	-10.5542
چارج	-10.5552
▁KU	-10.5561
▁تھر	-10.5562
84	-10.5564
▁ایڈم	-10.5567
▁ریو	-10.5569
▁دھماکے	-10.5571
▁ریفارم	-10.5575
بلی	-10.5579
▁ہارٹ	-10.5584
▁نوٹر	-10.5589
یروش	-10.5595
ation	-10.5595
▁Y	-10.5596
▁ٹیون	-10.5606
ومی	-10.5607
ورا	-10.561
▁ڈیون	-10.5611
▁حج	-10.5625
▁نارمن	-10.5626
ٹیس	-10.5627
▁موقف	-10.5627
▁لغت	-10.5627
▁خیز	-10.5628
راڈ	-10.5629
▁انکوڈنگ	-10.5632
22	-10.5638
▁مبصر	-10.5639
▁تھورنگیا	-10.564
ٹرک	-10.5646
ارک	-10.565
▁آور	-10.5651
▁ونگ	-10.566
▁ٹار	-10.566
▁سنگ	-10.5673
▁پوائنٹس	-10.5673
▁دست	-10.5677
▁لیپ	-10.5678
▁ویز	-10.5681
فین	-10.5695
رالی	-10.5697
پوشی	-10.5703
▁ڈیلی	-10.5706
▁لوتھر	-10.5707
▁اگ	-10.571
▁روکا	-10.5711
▁سنبھالا	-10.5713
افت	-10.5714
▁مطلق	-10.5718
▁ستار	-10.5718
▁خطرناک	-10.5719
▁ٹرافی	-10.5719
▁صحافی	-10.5719
▁کمشنر	-10.5719
▁1958	-10.5721
▁جد	-10.5724
▁فرقہ	-10.5726
▁ٹانگ	-10.5728
لیتا	-10.5729
عام	-10.5734
▁پڑھا	-10.575
قان	-10.5751
▁سکے	-10.576
▁واٹ	-10.5776
▁چائلڈ	-10.581
▁سرزمین	-10.581
▁چہر	-10.581
▁ارسطو	-10.581
▁اسٹالن	-10.5811
▁کرنسی	-10.5811
ابی	-10.5811
▁1983	-10.5813
▁1937	-10.5814
▁جیکسن	-10.5815
▁کریں۔	-10.5817
▁وسطیٰ	-10.582
▁سون	-10.5822
tra	-10.5834
▁مقال	-10.584
▁مارکس	-10.5843
▁(15	-10.5844
سیلی	-10.5849
▁فضائیہ	-10.5852
▁رہے۔	-10.5854
ریل	-10.5857
▁ٹریل	-10.5861
▁گھنٹہ	-10.5862
اکس	-10.5863
▁ایجنسیوں	-10.5865
ڈیم	-10.5866
▁فنڈز	-10.5879
▁قرضے	-10.5881
▁قبرصی	-10.5884
▁تاجر	-10.5892
▁اولڈ	-10.5899
▁چاند	-10.5899
بیری	-10.5901
▁رسومات	-10.5902
▁فلسطین	-10.5902
▁مفید	-10.5902
▁قرارداد	-10.5903
لپائن	-10.5904
▁1953	-10.5906
▁سپورٹ	-10.5906
-10	-10.5918
▁مہمان	-10.592
▁گڈ	-10.5935
ine	-10.5945
▁ویڈیوز	-10.5955
▁تبصر	-10.5957
اصل	-10.5958
▁لڑی	-10.5963
▁مسیحی	-10.5969
▁خریدن	-10.5981
ہو	-10.5982
38	-10.5983
▁رجسٹر	-10.5986
▁اتار	-10.599
پولس	-10.5993
کالت	-10.5993
▁فش	-10.5993
▁معاشروں	-10.5996
▁کنیکٹیکٹ	-10.5996
ν	-10.5996
ائیں	-10.5996
44	-10.5998
▁چٹان	-10.6
▁شخصیات	-10.6001
▁بون	-10.6004
▁بھیجن	-10.6009
▁انع	-10.6009
▁سار	-10.6027
یکٹر	-10.6041
یسس	-10.6045
▁صوتیات	-10.6069
▁اسکین	-10.6079
▁کروز	-10.6087
▁انڈرگریجویٹ	-10.609
▁موافقت	-10.609
▁نشوونما	-10.609
▁نژاد	-10.609
▁خواند	-10.609
▁گہرائی	-10.6092
▁فیری	-10.6093
▁1968	-10.6094
▁ایرینا	-10.6094
▁عمری	-10.6099
ماپا	-10.61
▁معاون	-10.6105
آرکیٹیکچرل	-10.6106
▁موریس	-10.6109
▁موٹ	-10.6113
▁گلیڈ	-10.6114
▁شور	-10.6116
▁نشستیں	-10.6118
▁اوپ	-10.6123
▁رائ	-10.6127
▁اہل	-10.614
▁میڈر	-10.6157
یعنی	-10.6165
▁جوڑ	-10.6168
▁ابھر	-10.6182
▁انتھروپولوجی	-10.6185
▁مملکت	-10.6185
▁فعل	-10.6186
▁1922	-10.6188
▁ٹیکنیک	-10.6189
ers	-10.619
▁اوس	-10.6195
▁نوازا	-10.6202
▁بھیجے	-10.6203
▁سوم	-10.6204
▁وائرس	-10.6211
om	-10.6217
▁ریش	-10.6219
دوار	-10.622
یلی	-10.6243
▁سننے	-10.6244
▁کردی۔	-10.6249
▁کتابیں	-10.6251
▁وائر	-10.6256
▁لوپ	-10.6258
▁قبر	-10.6263
▁رہی۔	-10.6266
▁طیارہ	-10.6268
▁ایجوکیشن	-10.6282
▁تشویش	-10.6282
▁مسابقت	-10.6282
▁ٹورنامنٹ	-10.6282
▁رومانٹک	-10.6282
▁ظلم	-10.6282
▁انگیز	-10.6282
▁راجر	-10.6282
▁1952	-10.6284
▁کنیکٹر	-10.6285
▁علمی	-10.6286
▁1880	-10.6288
چین	-10.6288
دھوک	-10.6289
▁چوتھائی	-10.6291
06	-10.6296
700	-10.6296
منڈ	-10.6297
وئی	-10.6297
عد	-10.6313
کول	-10.6313
▁سینیٹر	-10.6314
▁مونیک	-10.6318
▁ووٹر	-10.6333
▁رکھنا	-10.6333
ir	-10.6344
▁ریت	-10.6351
▁10،000	-10.6353
▁انڈو	-10.636
▁چمک	-10.6366
خطوط	-10.6367
▁دروازے	-10.6368
▁مقدونی	-10.6376
▁حساس	-10.6376
▁پیلس	-10.6377
▁جرنل	-10.6379
▁افغانستان	-10.6379
یوئیفا	-10.6379
▁براڈوے	-10.6379
راگوئ	-10.6382
نصف	-10.6383
ناک	-10.6385
▁سیکنڈری	-10.6387
▁برادریوں	-10.6396
سیف	-10.6397
tic	-10.6416
روم	-10.643
▁پہنت	-10.6433
da	-10.6435
▁طبقات	-10.6437
▁شوز	-10.6466
▁ٹون	-10.6467
▁راجستھان	-10.6477
▁صوبائی	-10.6477
▁سامورائی	-10.6477
▁کیپسیٹر	-10.6477
▁سنیما	-10.6478
▁کوارٹر	-10.6478
▁الفریڈ	-10.6478
▁1956	-10.648
▁مخطوط	-10.6489
رنر	-10.6491
1965	-10.6501
▁گرام	-10.6502
▁بیری	-10.6503
▁ایج	-10.6516
ly	-10.652
▁والٹر	-10.6525
▁نکلا	-10.6525
▁دا	-10.6525
▁فیکٹری	-10.6532
انٹ	-10.6547
▁حاضری	-10.6549
▁(6	-10.6551
رٹش	-10.6552
▁چپ	-10.6562
▁سینک	-10.6565
گیٹ	-10.6571
▁تفہیم	-10.6576
▁محاصرے	-10.6576
▁شعور	-10.6576
▁اسسٹنٹ	-10.6576
▁ورجل	-10.6577
▁بلند	-10.6579
▁صلیب	-10.6579
▁1910	-10.6581
▁سمر	-10.6582
▁گیارہو	-10.6584
▁فارس	-10.6586
▁سفارتی	-10.6594
▁امور	-10.6595
▁آسمان	-10.6595
▁ہینری	-10.6606
ویلٹ	-10.661
▁گلاس	-10.6613
مارٹ	-10.662
کیٹ	-10.6627
▁سنت	-10.6635
شار	-10.6639
▁والٹ	-10.6641
عتی	-10.6642
900	-10.6646
▁بٹن	-10.6659
▁ویلی	-10.6659
▁کیسل	-10.6673
▁نیورو	-10.6673
▁الکحل	-10.6676
▁برصغیر	-10.6676
▁نیویگیشن	-10.6676
▁ٹیگ	-10.6679
▁ہاربر	-10.668
▁1936	-10.668
قب	-10.668
▁وفادار	-10.668
▁اندراج	-10.6682
موٹو	-10.6686
▁بد	-10.6691
▁سرپرستی	-10.6706
ya	-10.6726
▁ایٹن	-10.6726
▁گرانٹ	-10.673
▁جانشینی	-10.673
کستان	-10.6741
▁بروک	-10.6759
▁آنکھ	-10.6761
ارٹ	-10.6767
▁میونسپل	-10.6774
▁اسپتال	-10.6777
▁قونصل	-10.6777
▁پیشرفت	-10.6777
▁براؤزر	-10.6777
پٹھوں	-10.6777
▁گیند	-10.6777
▁برآ	-10.6779
▁ڈسکس	-10.6779
▁بپتسمہ	-10.678
ac	-10.6781
▁منطق	-10.6782
▁سیلاب	-10.6782
ot	-10.6786
▁کرای	-10.6804
▁آربر	-10.6805
▁(10	-10.6809
▁قار	-10.6814
▁ہیر	-10.6815
▁الیکٹرانکس	-10.6819
▁تنگ	-10.6829
▁ناگ	-10.683
▁مانگ	-10.6832
▁گرے	-10.6834
▁اتر	-10.6836
وٹا	-10.6838
▁نیک	-10.684
▁مہنگ	-10.6854
▁برڈ	-10.6857
▁میکس	-10.6865
رب	-10.687
▁اقتصادی	-10.6879
▁ایریزونا	-10.6879
▁1876	-10.6883
▁پلیس	-10.6889
ولس	-10.6892
پونٹ	-10.69
▁اثاثوں	-10.6912
▁کورسز	-10.6913
▁اینٹ	-10.6915
▁حسی	-10.6916
▁all	-10.6926
▁ایکشن	-10.693
یانگ	-10.6932
فیلڈ	-10.6944
▁مہمات	-10.6946
les	-10.696
وسس	-10.6963
▁دشمنی	-10.697
▁سیم	-10.6975
▁سائبر	-10.6981
▁ڈویلپر	-10.6982
▁ہدایات	-10.6982
▁میکانزم	-10.6982
▁چیمبر	-10.6982
▁مہایان	-10.6983
▁IV	-10.6984
▁دلیل	-10.6985
▁1943	-10.6985
▁رجسٹرڈ	-10.6991
▁ریف	-10.6992
▁the	-10.6995
▁اٹھان	-10.7001
کھ	-10.7004
▁پچ	-10.7007
ns	-10.7007
▁گردش	-10.701
▁خطاب	-10.7012
اتوار	-10.7017
▁نار	-10.7026
بون	-10.7032
▁بچان	-10.7047
▁گزرن	-10.7049
ba	-10.7049
▁نیٹو	-10.706
07	-10.7061
▁توازن	-10.7062
▁کروائی	-10.7071
شیا	-10.7074
▁یونیورسٹیاں	-10.7075
▁دیکھیں	-10.7082
▁کھڑی	-10.7085
XNUMX	-10.7086
▁کروموسوم	-10.7086
▁متفق	-10.7086
▁گٹار	-10.7086
▁دیوالی	-10.7086
▁لائبیریا	-10.7086
نیویارک	-10.7087
▁دربار	-10.7087
▁اسٹراسبرگ	-10.7087
▁گریمی	-10.7088
▁مشنری	-10.7097
▁ہڈ	-10.7106
▁مارے	-10.7107
▁1800	-10.7108
▁اوپن	-10.7109
ناس	-10.7112
▁شیک	-10.7118
دیش	-10.7125
▁ساتھیوں	-10.7128
کھاتے	-10.7136
▁بلو	-10.7148
▁مینوفیکچرر	-10.7152
▁ہینڈ	-10.7153
ھو	-10.7157
▁کریم	-10.7161
▁کوڈنگ	-10.7162
▁پہنن	-10.7172
دگی	-10.7172
▁کھینچ	-10.718
ou	-10.7185
ویر	-10.7186
Q	-10.7191
▁تنخواہ	-10.7191
▁ڈزنی	-10.7191
▁سجاوٹ	-10.7191
▁شبہ	-10.7191
▁سیلول	-10.7194
▁1955	-10.7196
▁براڈ	-10.7199
▁دھن	-10.7199
▁جیل	-10.7201
▁پائیدار	-10.7201
▁1.5	-10.7201
▁نائ	-10.7202
▁آتش	-10.7206
▁مشی	-10.7212
▁آرگن	-10.7212
مپ	-10.7213
▁نیدرلینڈز	-10.7216
▁کھولی	-10.722
▁انڈین	-10.7236
▁آبادکاری	-10.7237
▁لائٹنگ	-10.7237
گرام	-10.7244
▁تھائی	-10.726
لتھ	-10.7261
بیٹ	-10.7268
کوٹ	-10.7269
▁لیڈر	-10.7271
▁خرید	-10.728
▁صحا	-10.7296
▁قصب	-10.7298
▁انڈونیشیا	-10.7298
▁مخلوق	-10.7298
▁پھینک	-10.7298
▁لبنان	-10.7298
▁نمٹن	-10.7298
▁تابع	-10.7298
▁تمغ	-10.7298
▁1931	-10.73
▁دھار	-10.73
بروکلین	-10.7304
▁جاز	-10.7333
وما	-10.7342
▁میز	-10.7346
▁چڑھ	-10.7351
▁تخمین	-10.7357
ستان	-10.7359
▁ٹوک	-10.7381
ie	-10.7381
▁تقوی	-10.7405
▁مغل	-10.7405
▁1946	-10.7409
▁حلق	-10.7413
▁فضلہ	-10.7415
▁افزائ	-10.7418
▁منہ	-10.7418
جولین	-10.7427
▁پکڑ	-10.743
ینس	-10.7435
▁کنڈکٹر	-10.7436
▁رقبہ	-10.7439
▁قائ	-10.7442
▁اچھا	-10.7451
▁دکھات	-10.7455
یئم	-10.7459
▁وول	-10.746
▁ریورس	-10.7465
▁مونٹینی	-10.7469
یکم	-10.7473
▁کالجوں	-10.7481
▁معاملہ	-10.749
▁کشش	-10.7491
▁لڑا	-10.7504
▁ویکسین	-10.7513
á	-10.7514
▁فائبر	-10.7514
▁ڈپٹی	-10.7514
▁گھومن	-10.7514
▁نادر	-10.7514
▁ڈیس	-10.7515
▁سائ	-10.7515
▁اہلیہ	-10.7516
▁1957	-10.7517
▁1912	-10.7517
▁1954	-10.7517
▁1870	-10.752
▁سنٹرل	-10.7522
1934	-10.7524
▁مادی	-10.7524
▁رہنمائی	-10.7533
▁کالم	-10.7534
▁سہر	-10.754
▁نیشن	-10.754
▁کینسر	-10.7543
▁ٹریننگ	-10.7548
▁پگھلن	-10.7561
▁تپ	-10.7566
ٹکس	-10.7569
▁انگل	-10.7569
qu	-10.7578
▁ریگولیٹر	-10.758
نوٹ	-10.7593
▁ثانی	-10.7605
1840	-10.7612
▁پڑھ	-10.7617
▁راکٹ	-10.7619
نیچر	-10.7621
▁عبرانی	-10.7624
▁سکھایا	-10.7624
والنسین	-10.7624
▁قبرستان	-10.7624
▁مجھ	-10.7624
▁علوم	-10.7624
▁1938	-10.7626
.6	-10.7629
دال	-10.7633
▁ترکیب	-10.7633
▁چن	-10.7634
▁وید	-10.7638
▁گلو	-10.7638
▁سائنسز	-10.7642
+	-10.7645
▁ٹرائ	-10.765
وٹی	-10.766
▁خاصیت	-10.7667
▁حص	-10.7672
روجن	-10.7683
▁مینڈ	-10.7708
▁ہوں۔	-10.771
31	-10.7712
au	-10.7713
▁کوئین	-10.7715
▁ایری	-10.7721
یڈس	-10.7722
▁شیٹ	-10.7724
▁ماریا	-10.7729
غرب	-10.773
▁افرا	-10.7731
▁1861	-10.7735
▁خروش	-10.7735
▁دشواری	-10.7735
▁اسپیکر	-10.7735
▁مرکری	-10.7735
▁چربی	-10.7736
▁ناظرین	-10.7736
▁1962	-10.7738
▁1942	-10.7739
▁فرار	-10.7751
▁فائنلسٹ	-10.7756
▁ٹرن	-10.776
pr	-10.7763
▁نکالن	-10.7764
ke	-10.7766
▁ٹیپ	-10.777
▁Pa	-10.7771
▁فلائٹ	-10.7782
▁موم	-10.7782
▁جوڑا	-10.7783
▁بائی	-10.781
▁لاما	-10.782
ber	-10.7836
▁1،	-10.7839
▁اشارے	-10.784
▁زلزلہ	-10.7843
▁ہڑتال	-10.7847
▁وزراء	-10.7847
▁تعامل	-10.7847
▁انگوٹی	-10.7848
▁اہلکار	-10.7848
▁نیند	-10.7848
▁کردیئے	-10.7848
▁گھاس	-10.7853
▁کنکشن	-10.7853
▁مائع	-10.7857
ریچ	-10.7864
▁ٹیلر	-10.7865
▁Sa	-10.7872
▁ہیری	-10.7878
▁پرنٹنگ	-10.7879
▁کنٹرولر	-10.7879
▁ڈوب	-10.788
Y	-10.7887
نفا	-10.7895
ھا	-10.7895
▁ریسل	-10.7903
جایا	-10.7909
▁لینا	-10.7914
▁پہنچا۔	-10.7942
▁ابو	-10.7943
1830	-10.7944
▁بھیج	-10.7947
em	-10.7949
▁آئے۔	-10.7952
▁زیڈ	-10.796
▁ڈھال	-10.7961
▁اسٹیفن	-10.7961
▁رومانوی	-10.7961
▁گینگ	-10.7961
▁چودہویں	-10.7961
▁بادل	-10.7963
▁درکار	-10.7963
▁مسود	-10.7963
▁ٹرانزسٹر	-10.7963
▁ریویو	-10.7964
▁1919	-10.7965
▁کررہ	-10.7965
▁1959	-10.7966
▁بیچ	-10.7969
▁سونگ	-10.7971
▁آرٹیکل	-10.7971
▁گریجوی	-10.7971
پنگ	-10.7975
▁مڈل	-10.7989
لوم	-10.7998
▁صنعتوں	-10.8001
▁ایٹمی	-10.8004
▁مچھلی	-10.8017
خاص	-10.8023
1929	-10.8035
▁پہنچی	-10.8045
▁لائنیں	-10.8049
▁بیٹھ	-10.8058
▁چھاپ	-10.8067
▁ایش	-10.807
▁پندرہو	-10.8071
کور	-10.8074
▁سپلائی	-10.8076
کیوبزم	-10.8078
▁1913	-10.808
▁کلارک	-10.808
▁سوئچ	-10.8081
سیٹ	-10.8082
▁دق	-10.8086
شل	-10.8089
▁سنہر	-10.8092
گوار	-10.8097
▁ہڈس	-10.8105
سبرگ	-10.8117
▁میو	-10.8128
-14	-10.8129
09	-10.8141
▁ٹاورز	-10.8151
▁ہاکی	-10.8154
▁گورن	-10.8168
▁کھل	-10.817
▁گھوڑے	-10.8179
▁(12	-10.8182
▁ہاس	-10.819
▁ستم	-10.8191
ī	-10.8192
ɪ	-10.8192
▁اعلامی	-10.8192
▁تصفیہ	-10.8192
▁نباتات	-10.8192
▁آرائش	-10.8192
حرف	-10.8193
▁دکھائی	-10.8193
▁کیریبین	-10.8194
▁1947	-10.8196
▁لاکھ	-10.8196
▁کیوبا	-10.8197
▁ٹرام	-10.82
▁کھولن	-10.8201
▁ٹٹو	-10.8202
▁رسل	-10.8206
▁اعصابی	-10.8208
1)	-10.8209
▁چکر	-10.8216
ag	-10.8216
▁فران	-10.822
▁ایون	-10.8225
▁نشانات	-10.8226
▁سنی	-10.823
0,000	-10.8231
03	-10.8235
ویئر	-10.8238
che	-10.8245
ماس	-10.825
ارت	-10.8255
▁نیدرلینڈ	-10.8282
▁La	-10.8287
▁استقبال	-10.831
▁نامعلوم	-10.831
▁گنجائش	-10.831
▁ماڈیول	-10.831
▁لیفٹینن	-10.831
▁فساد	-10.831
▁ڈنمارک	-10.831
▁محور	-10.831
▁دکھائے	-10.831
▁وہیل	-10.8311
▁1890	-10.8315
▁1925	-10.8315
قیمتوں	-10.8319
خیر	-10.8322
ورباچ	-10.8322
شان	-10.8328
▁لہروں	-10.8329
▁1500	-10.8336
4،000	-10.834
▁منچو	-10.835
bi	-10.8354
▁عقیدت	-10.8367
▁ڈوم	-10.8375
▁لیڈی	-10.838
▁بنا۔	-10.8384
ویچ	-10.839
یئنز	-10.8395
پوزیشن	-10.84
▁پیڈ	-10.8405
▁ترقیات	-10.841
نگو	-10.841
▁کاٹن	-10.8415
▁ملازم	-10.8417
▁متغیر	-10.8418
ندگان	-10.8426
▁بوناپارٹ	-10.8429
▁مرطوب	-10.8429
▁مستثنی	-10.8429
▁ممنوع	-10.8429
▁گہرے	-10.8429
▁انٹرویو	-10.8429
▁ایڈمرل	-10.8429
▁مزاج	-10.8429
▁ناممکن	-10.8429
▁اینگلیکن	-10.8429
▁آرگنائزیشن	-10.8429
ڈور	-10.843
▁De	-10.8431
▁زر	-10.8433
▁کینٹن	-10.8437
▁تم	-10.8444
▁اخلاقیات	-10.8447
شیم	-10.8457
▁اسٹیو	-10.846
500	-10.8461
▁لوٹ	-10.8468
▁بلاکس	-10.848
▁ہمار	-10.8482
▁جونز	-10.8495
باکو	-10.8496
▁چیزیں	-10.8506
▁چینلز	-10.8511
▁وفاداری	-10.8544
▁ناراض	-10.8547
▁دھکیل	-10.8549
▁وابستگی	-10.8549
▁دانشور	-10.8549
λ	-10.8549
▁کمپیکٹ	-10.8549
▁مایوس	-10.855
▁Al	-10.855
▁بنگال	-10.855
▁ایرو	-10.855
▁حیات	-10.8551
▁ملیشیا	-10.8551
▁موجد	-10.8552
▁بھائیوں	-10.8554
▁سربیا	-10.8557
5)	-10.8557
بعد	-10.8562
بورن	-10.857
▁منصب	-10.8571
▁ستنداریوں	-10.8573
▁ولیمز	-10.8578
▁عقل	-10.859
7،000	-10.8593
hi	-10.8607
ونیا	-10.8611
mp	-10.8625
▁آرائی	-10.863
▁کمیون	-10.8632
▁سکھ	-10.8633
▁سیکس	-10.8645
کھلی	-10.8648
▁Ro	-10.8662
▁ڈیسک	-10.8667
▁افادیت	-10.8671
▁ایتھوپیا	-10.8671
▁فرنچائز	-10.8671
▁میکینٹوش	-10.8671
▁قطر	-10.8671
▁سویڈن	-10.8671
▁جملے	-10.8672
▁تولید	-10.8672
▁پکچر	-10.8673
سٹرکچر	-10.8673
▁1911	-10.8675
▁کیمسٹری	-10.8675
▁نالی	-10.8679
بشمول	-10.868
باد	-10.868
▁(8	-10.8683
▁فونٹ	-10.8684
▁سنگین	-10.8685
▁باغ	-10.8693
▁بینر	-10.8696
▁کیلون	-10.8697
▁چاہ	-10.8697
▁شیو	-10.8698
▁(11	-10.8709
▁فرینکل	-10.8716
-12	-10.8726
▁نمائندے	-10.8733
▁ایبل	-10.874
▁فیل	-10.8741
▁شماریات	-10.8754
▁ارل	-10.876
gu	-10.8767
▁قبائلی	-10.877
▁شہزاد	-10.8775
▁مختص	-10.8781
▁چیٹ	-10.8782
ینیکل	-10.8787
▁الح	-10.8788
مارک	-10.8792
▁مردہ	-10.8793
ASCII	-10.8795
▁آکسیجن	-10.8795
▁روزمرہ	-10.8795
▁پلاسٹک	-10.8795
▁شوہر	-10.8795
▁نامیبیا	-10.8796
سپر	-10.8797
▁کیپٹن	-10.88
▁اینلیڈ	-10.88
▁فرمان	-10.8802
▁انفارمیشن	-10.8809
▁اسٹڈ	-10.8812
AC	-10.8817
خود	-10.8821
▁Re	-10.8821
سپین	-10.8822
ایل	-10.8826
▁اٹھات	-10.8827
▁برآمدات	-10.8829
میک	-10.8838
▁ڈاٹ	-10.884
جنگ	-10.8843
▁پلانک	-10.8845
▁جیم	-10.8847
ورو	-10.885
▁فائز	-10.8852
▁انڈر	-10.8856
▁180	-10.8857
▁نمائندہ	-10.8863
▁تیر	-10.8864
▁آجر	-10.8864
▁ماسکو	-10.8864
▁عقلی	-10.8877
▁ہاؤسز	-10.8892
▁کوئل	-10.8903
ru	-10.8904
جہتی	-10.8908
▁رائٹس	-10.8909
▁ساختی	-10.8919
ant	-10.892
▁انتباہ	-10.892
▁مثلث	-10.892
▁محاذ	-10.892
▁ڈپارٹمنٹ	-10.892
▁چوری	-10.8923
▁1927	-10.8924
▁فوسل	-10.8925
▁250	-10.8931
gi	-10.8933
▁پائپ	-10.8935
ہٹلر	-10.8939
قر	-10.894
▁کانسی	-10.8943
▁گز	-10.8949
▁میٹنگ	-10.8949
▁قوس	-10.8954
ظ	-10.8961
اڑ	-10.8961
کوف	-10.8983
▁سباق	-10.8983
hu	-10.8993
▁ڈیجی	-10.8998
نیو	-10.9001
▁کتا	-10.9019
pe	-10.9028
▁کمپیوٹ	-10.9031
con	-10.9031
-3	-10.9033
▁قیمتی	-10.9034
▁تعا	-10.9041
▁ریزولوشن	-10.9046
▁بریگیڈ	-10.9046
▁پوچھ	-10.9046
▁پارٹنر	-10.9046
▁ونڈسر	-10.9046
▁بچایا	-10.9047
▁داغ	-10.9047
▁پرسکون	-10.9047
▁1909	-10.9049
-15	-10.9049
سکو	-10.905
▁1924	-10.905
▁گنتی	-10.9052
ورز	-10.9063
▁براڈکاسٹ	-10.9074
▁لسانیات	-10.9074
صال	-10.9075
▁سوالات	-10.9076
ٹروپ	-10.9076
کلاسیکل	-10.908
▁VII	-10.9089
▁تنقیدی	-10.909
▁لگات	-10.9093
▁لکیری	-10.9111
▁کمائی	-10.9124
امین	-10.9132
▁ووٹنگ	-10.9151
▁لائٹس	-10.9151
▁استثنا	-10.9168
▁بلندی	-10.917
▁سلو	-10.9173
▁کنفیڈریٹ	-10.9174
▁اعمال	-10.9174
▁وائلڈ	-10.9174
▁اڑنے	-10.9176
▁ریئل	-10.9176
▁1933	-10.918
▁1853	-10.9181
▁میکانک	-10.9182
▁بھارت	-10.9184
▁ڈاون	-10.9185
▁چارلز	-10.9186
ver	-10.9202
▁بلا	-10.9203
▁مشیر	-10.9215
,000،	-10.9223
نبرگ	-10.9223
عزم	-10.9231
بال	-10.9242
ll	-10.9244
ڑے	-10.9254
sh	-10.926
▁گیر	-10.9298
▁لتھوانیا	-10.9301
▁جاسکت	-10.9301
▁بریک	-10.9303
ι	-10.9304
فیمیکوم	-10.9304
▁انسائیکلوپیڈیا	-10.9304
▁نصاب	-10.9304
▁جملہ	-10.9305
▁سوڈان	-10.9305
▁بیلجیم	-10.9305
▁گھیر	-10.9306
▁1951	-10.9308
▁سوٹ	-10.9309
ولوجیکل	-10.931
▁ماؤ	-10.9313
ائڈس	-10.9313
-16	-10.9319
▁200،000	-10.9325
▁اسٹین	-10.9326
3)	-10.935
ang	-10.9354
سرو	-10.9357
▁کپڑ	-10.938
▁نوک	-10.9386
▁جمناسٹک	-10.939
▁ٹیکنک	-10.9392
داریوں	-10.9403
وسط	-10.9419
▁کینیڈی	-10.9422
▁میلان	-10.9424
دان	-10.9429
▁عہدوں	-10.9435
▁مسجد	-10.9436
▁انصاف	-10.9436
▁فیملی	-10.9439
▁1848	-10.9444
▁فورم	-10.9446
▁لائے	-10.9446
▁گلوبل	-10.9449
▁ویٹیک	-10.9455
▁پرائم	-10.9457
▁تجاوز	-10.9457
▁گلیشیئرز	-10.9463
▁کاؤنٹر	-10.9466
▁کولمب	-10.9477
▁عصر	-10.9478
سٹائن	-10.9485
ach	-10.9489
que	-10.9492
▁600	-10.9499
لینز	-10.9506
▁ٹینک	-10.9513
بورو	-10.9527
پہلے	-10.9533
▁گلیشیئر	-10.9542
tor	-10.9544
بان	-10.9547
رکیڈین	-10.9552
▁مادر	-10.9556
▁ڈیو	-10.9558
▁منج	-10.9563
▁ثالث	-10.9569
▁لیورپول	-10.9569
▁مشاورت	-10.9569
▁ملائیشیا	-10.9569
▁پنسلوانیا	-10.9569
▁ایکسپریس	-10.9569
▁ارجنٹائن	-10.9569
▁ڈسپل	-10.9569
ڈڈ	-10.957
ڈرامہ	-10.9571
▁شیع	-10.9574
▁ہیکٹر	-10.9576
▁شاپنگ	-10.9578
▁ہاک	-10.9584
▁ٹچ	-10.9587
▁فورب	-10.9592
▁رینک	-10.9594
یرو	-10.9596
▁ہب	-10.9599
وٹس	-10.9603
▁لوس	-10.9616
▁مہا	-10.9617
یکیشن	-10.9617
▁لفٹیں	-10.9619
▁میسنک	-10.9642
▁میڈل	-10.9651
▁پٹی	-10.9668
▁لینگ	-10.9669
▁ملا۔	-10.9669
ae	-10.9672
حقیقت	-10.9681
لاطینی	-10.9681
ٹیج	-10.9681
ث	-10.9684
▁چڑ	-10.9693
ڈیس	-10.9694
2،000	-10.9695
▁اونچ	-10.9701
▁ناپسندید	-10.9705
▁افق	-10.9705
▁خوراک	-10.9705
ہجوم	-10.9705
▁اٹھائے	-10.9705
▁رسال	-10.9705
▁1907	-10.9707
▁پرامن	-10.9708
▁سسلی	-10.9709
▁بتات	-10.9709
▁1855	-10.9712
▁پلاٹ	-10.9738
▁روٹر	-10.9745
▁فلا	-10.977
▁بانٹ	-10.9781
▁اسٹیون	-10.9786
▁فکس	-10.9795
▁بیکر	-10.98
▁کیمیکل	-10.9816
▁میگا	-10.982
br	-10.9822
▁سیکھ	-10.9832
دادا	-10.9833
▁اطمینان	-10.9841
▁ایمسٹرڈیم	-10.9841
▁مراعات	-10.9841
▁آگاہ	-10.9842
▁محی	-10.9843
▁ہسٹری	-10.9844
▁کھڑکی	-10.9846
جارہ	-10.9846
▁میٹل	-10.9847
▁گرڈ	-10.985
▁ٹوٹن	-10.9854
▁سولہو	-10.9854
▁ہولڈر	-10.9859
so	-10.9859
▁ٹیوب	-10.986
▁لامحدود	-10.9861
▁ترجم	-10.9861
▁آگیا	-10.9862
اٹا	-10.9875
wa	-10.988
پوٹ	-10.9883
▁دھاتی	-10.9883
▁پیٹرک	-10.9894
▁موری	-10.9908
▁لنکن	-10.9909
▁راہ	-10.9911
▁تنظیمیں	-10.9912
▁بلڈ	-10.9913
▁ریفری	-10.9925
▁کریمیا	-10.993
▁املا	-10.9933
▁گرفتاری	-10.9947
▁شرمن	-10.9949
▁جوش	-10.9952
جیب	-10.9953
▁ڈیوس	-10.9954
▁Co	-10.9961
▁لمب	-10.9965
▁صفح	-10.9974
نگر	-10.9978
▁محروم	-10.998
▁کیمبرج	-10.998
▁سمفونی	-10.998
▁اندوز	-10.998
▁سبسڈی	-10.9981
▁لمح	-10.9981
▁اوزار	-10.9982
▁اورنج	-10.9983
▁دراز	-10.9983
▁چاول	-10.9985
▁1871	-10.9986
▁PS	-10.9987
ٹور	-10.9988
تاب	-10.999
6،000	-10.9992
▁فہم	-10.9993
▁ارادے	-11.0003
▁وارنر	-11.0009
▁خل	-11.0013
▁شاہ	-11.0024
▁ڈرم	-11.0025
ولیتھک	-11.0032
▁سکری	-11.0042
نتھ	-11.0051
▁ننگ	-11.0065
مکھی	-11.0067
▁پبلشر	-11.0068
▁پوت	-11.0071
▁سلیک	-11.0078
▁علام	-11.0083
نوس	-11.0084
ائع	-11.0084
▁پروسیسر	-11.0087
▁گرافک	-11.0091
▁ڈینس	-11.0101
▁سرور	-11.0109
▁امپ	-11.0115
خراج	-11.0119
▁کاؤنٹ	-11.012
lu	-11.0121
▁خوشحال	-11.0121
▁پیچیدگی	-11.0121
▁شعل	-11.0121
▁اسکواڈرن	-11.0122
▁کھال	-11.0123
▁ورجن	-11.0126
▁واچ	-11.0129
▁شریف	-11.0133
▁آرکی	-11.0134
▁مرض	-11.0137
▁برائن	-11.0139
حکومت	-11.0143
▁160	-11.0145
ill	-11.0146
▁دھڑ	-11.0149
▁جیوا	-11.0154
▁میٹھ	-11.0157
8)	-11.0159
▁سرحدی	-11.017
ist	-11.0185
▁حلف	-11.0188
▁شہرت	-11.0188
▁ہورن	-11.0189
▁ترجمان	-11.0193
▁ہینڈل	-11.0199
▁پہنا	-11.0199
▁مائیکرو	-11.0204
▁سمجھا۔	-11.0205
▁جلاوطنی	-11.0205
▁Ca	-11.0216
وئل	-11.022
یئرز	-11.0237
▁استوا	-11.0238
▁سوان	-11.0239
وشن	-11.0244
4)	-11.0252
▁گار	-11.0262
طلاق	-11.0263
▁بزرگ	-11.0264
RIBA	-11.0264
▁بالادست	-11.0264
▁خمیر	-11.0264
▁پرجوش	-11.0264
▁سککوں	-11.0264
▁فنگس	-11.0265
▁ہیومن	-11.0265
سلط	-11.0266
▁1921	-11.0268
نگھائی	-11.0271
▁مارجن	-11.0273
▁لگائی	-11.0278
IN	-11.0287
▁بھاپ	-11.0292
▁پوشید	-11.0297
توازن	-11.0297
▁صفت	-11.03
▁مہلک	-11.0309
خط	-11.0311
راغ	-11.0313
▁امکانات	-11.032
▁جات	-11.0331
▁اسکی	-11.0331
ائنٹ	-11.0344
▁ضابط	-11.0345
▁پہنے	-11.035
▁خریدی	-11.0357
▁تاروں	-11.0361
▁دیکھتا	-11.0362
▁عربوں	-11.0364
▁نووا	-11.0368
▁نیپول	-11.0386
▁ہلز	-11.0387
اگا	-11.0393
▁اسکیل	-11.0394
▁گولڈن	-11.0396
/'	-11.0397
▁منطقی	-11.0401
▁پلین	-11.0401
▁بلغاری	-11.0409
▁سویڈش	-11.0409
▁پھٹ	-11.0409
▁پروڈکٹ	-11.0409
▁جعل	-11.0409
▁طرازی	-11.0409
▁لارنس	-11.0409
▁لچکدار	-11.041
▁بازار	-11.0412
▁بستر	-11.0412
▁میگن	-11.0413
▁کلیسیا	-11.0413
کروشیا	-11.0413
▁برتر	-11.0416
▁ڈیزائنر	-11.0417
▁لوئی	-11.0421
▁گاڑیاں	-11.0423
لورین	-11.0424
X	-11.0427
▁(199	-11.0431
mon	-11.0432
▁قیا	-11.0438
▁کیمیکلز	-11.0438
▁پائن	-11.0447
▁ریاضیات	-11.0449
مادیت	-11.0452
یوا	-11.0457
▁ٹکٹ	-11.0458
ومیٹر	-11.0467
▁فارمول	-11.0467
سلاو	-11.0475
▁خا	-11.0475
▁تیرہ	-11.0486
عاد	-11.0488
وال	-11.0493
▁احاط	-11.0508
سڈن	-11.0513
sch	-11.0518
بیس	-11.0523
▁روکت	-11.0526
▁گلیوں	-11.0529
ted	-11.0529
▁نکالا	-11.0533
▁مہینہ	-11.0539
US	-11.0546
▁تضاد	-11.0556
▁اطراف	-11.0556
▁انشورنس	-11.0556
▁تجریدی	-11.0556
▁فیوژن	-11.0556
▁ماڈرن	-11.0556
▁بیلاروس	-11.0556
▁مویشی	-11.0556
▁فزکس	-11.0556
▁اینڈریو	-11.0557
▁کنزرویٹو	-11.0557
▁مارگریٹ	-11.0557
▁چلائے	-11.0559
▁1928	-11.056
-4	-11.0562
▁وکٹر	-11.0562
▁1898	-11.0564
وئیل	-11.057
▁ہرٹز	-11.0572
▁درواز	-11.0572
▁گھوڑ	-11.0572
▁دھماکہ	-11.0577
▁دبان	-11.0587
9)	-11.0591
▁درجن	-11.0591
▁فائٹر	-11.0595
▁سازش	-11.06
ard	-11.0603
▁سرگرم	-11.0609
▁توڑن	-11.062
▁پہچانا	-11.0627
ویک	-11.063
▁آنت	-11.0636
▁سیکھا	-11.0645
ورن	-11.0671
معاوضہ	-11.0687
کوپن	-11.0697
محاصرہ	-11.0705
−	-11.0705
▁آئسوٹوپ	-11.0705
▁الجھن	-11.0705
▁تنصیب	-11.0705
▁پھنس	-11.0705
κ	-11.0705
ρ	-11.0705
سعود	-11.0705
▁گوتم	-11.0706
▁کشیدگی	-11.0706
▁خوفزد	-11.0706
▁ہارورڈ	-11.0707
▁کاپٹر	-11.0707
▁میڈیم	-11.071
یکٹس	-11.0712
ثنا	-11.0717
▁ڈیلٹا	-11.0719
ورش	-11.072
▁1850	-11.0722
▁رسی	-11.0724
▁ذر	-11.0748
لاؤ	-11.075
▁گوڈ	-11.0753
▁گرل	-11.0754
▁آگسٹ	-11.0755
des	-11.0768
چٹ	-11.0774
▁لکیر	-11.0781
▁دلائی	-11.0783
▁پیئر	-11.0785
سابقہ	-11.0793
su	-11.0795
▁چھپ	-11.0798
▁حادث	-11.0806
▁وکٹوری	-11.081
گٹ	-11.081
▁جڑی	-11.0813
▁لگے	-11.0816
▁چوٹ	-11.0822
ko	-11.0822
ادی	-11.0824
0)	-11.0824
ٹیٹ	-11.0825
ess	-11.0825
▁آرکیٹیکچر	-11.083
▁وینڈ	-11.0833
ٹرم	-11.0845
▁عبد	-11.0854
▁واقف	-11.0855
▁انٹارکٹک	-11.0857
▁قیصر	-11.0857
▁لمیٹڈ	-11.0857
▁پلازہ	-11.0857
▁انخلا	-11.0857
▁روادار	-11.0857
▁دوگنا	-11.0857
▁مورفولوجی	-11.0857
▁کیپیٹل	-11.0857
▁ہارمون	-11.0859
▁بیوہ	-11.086
▁گائیڈ	-11.086
▁1908	-11.086
▁متاثرین	-11.086
▁خلاص	-11.0861
▁مندرج	-11.0868
▁پالت	-11.0874
▁(9	-11.0879
tes	-11.0887
▁بوک	-11.0893
تھم	-11.0894
▁عین	-11.0901
▁رہیں	-11.0914
▁ہاورڈ	-11.0915
▁(7	-11.092
▁رجحانات	-11.0926
▁ہیلنس	-11.0933
جیکٹ	-11.0945
غیر	-11.0955
داد	-11.0957
tion	-11.0958
پیدائش	-11.0962
ورین	-11.0962
▁رقب	-11.0964
▁دعا	-11.0969
▁استح	-11.0971
▁سود	-11.0976
▁کامن	-11.0982
▁گناہ	-11.0986
▁سیلز	-11.1004
وسکی	-11.1007
▁مدعو	-11.1011
▁مسیسیپی	-11.1011
▁میتھوڈسٹ	-11.1011
▁آڈیشن	-11.1011
▁مکانات	-11.1011
▁انسٹال	-11.1011
▁بقا	-11.1011
▁پرجیوی	-11.1011
▁ایبیریا	-11.1011
▁پڑے	-11.1012
▁منیجر	-11.1012
▁وولٹ	-11.1012
▁سائمن	-11.1012
طرفہ	-11.1015
▁بریوری	-11.1016
▁بریڈ	-11.1017
▁1854	-11.1018
ism	-11.102
▁غز	-11.1021
▁ضمنی	-11.1022
▁لٹل	-11.1023
▁لاش	-11.1025
▁نقاد	-11.1026
▁بیداری	-11.1028
▁امام	-11.1028
لیشن	-11.1029
▁شارٹ	-11.1043
▁رہن	-11.1044
ئل	-11.1045
▁پیٹرن	-11.1059
▁پسندانہ	-11.107
▁موٹی	-11.1076
▁آرکٹ	-11.1084
▁مج	-11.1087
▁بربر	-11.1091
▁ریگ	-11.1096
▁سیزر	-11.1102
ell	-11.1105
▁فلپس	-11.1106
▁گلاب	-11.1108
ab	-11.1108
▁مائیک	-11.1116
کھا	-11.1116
▁پکڑن	-11.1141
▁خو	-11.1151
▁ہٹن	-11.1152
▁کلور	-11.1154
ry	-11.1166
▁capacitor	-11.1167
▁ایلومینیم	-11.1167
▁ریزورٹ	-11.1167
▁صوابدید	-11.1167
▁پلائموتھ	-11.1167
▁مجاز	-11.1167
▁گونج	-11.117
▁1932	-11.1171
▁ہیرالڈ	-11.1172
▁کٹھ	-11.1174
▁AD	-11.1174
▁تس	-11.1176
▁پہی	-11.1177
vo	-11.1178
ضم	-11.1179
6)	-11.118
▁کاسٹیل	-11.1187
iz	-11.1188
▁کمان	-11.1189
▁آپشن	-11.1191
▁وائن	-11.1198
▁اسٹیپ	-11.12
▁فوت	-11.1201
▁فریڈم	-11.1206
7)	-11.1209
▁سنبھالن	-11.1215
▁(13	-11.1216
لیف	-11.1217
▁کرے۔	-11.1228
1865	-11.1235
▁سچ	-11.1252
▁بیمار	-11.1253
▁40،000	-11.1258
▁ہیلن	-11.1261
▁بدلت	-11.1263
▁لیول	-11.1316
ana	-11.1322
ton	-11.1324
*	-11.1326
▁Schwarzenegger	-11.1326
▁ادراک	-11.1326
▁اکنامک	-11.1326
▁صحیف	-11.1326
▁مراٹھا	-11.1326
▁آبدوز	-11.1326
کرسمس	-11.1326
▁وارث	-11.1327
ماچل	-11.1327
▁یادداشت	-11.1327
▁بلایا	-11.1333
▁انٹرسٹیٹ	-11.1334
▁فکر	-11.1341
سارا	-11.1348
▁ریڈار	-11.1349
▁ڈیوٹی	-11.1355
▁122	-11.1358
▁30،000	-11.136
فریقین	-11.1363
NA	-11.1367
▁ڈرائیور	-11.137
روگ	-11.137
▁میگ	-11.1374
اچی	-11.1378
▁کرائے	-11.1378
1903	-11.1378
فریڈ	-11.1398
▁کامیڈی	-11.1406
▁دیوی	-11.1406
نٹوش	-11.1417
وٹو	-11.1421
▁سروسز	-11.1441
▁ڈالت	-11.1442
du	-11.1452
▁فیز	-11.1456
▁ٹینس	-11.1457
▁اداکارہ	-11.1467
▁20،000	-11.1469
نوشی	-11.1478
▁اعضاء	-11.1487
▁افلاطون	-11.1487
▁بالواسطہ	-11.1487
▁تشہیر	-11.1487
▁تفتیش	-11.1487
▁عجائب	-11.1487
▁لطیفہ	-11.1487
▁ماتحت	-11.1487
▁کیٹالان	-11.1487
▁XXIII	-11.1487
▁فروش	-11.1487
▁پٹریوں	-11.1487
▁کلوگرام	-11.1487
▁گزارا	-11.1487
▁تاریک	-11.1489
امریکی	-11.149
▁حساسیت	-11.149
▁ہائپر	-11.149
انیا	-11.1492
▁مقدونیائی	-11.1492
▁ٹائٹو	-11.1492
▁قاص	-11.1493
▁1857	-11.1493
▁فیکٹریوں	-11.1496
▁کلچر	-11.1502
▁احمد	-11.1503
▁ڈسکو	-11.1508
قار	-11.1514
od	-11.1519
▁سیلون	-11.1526
ung	-11.1533
▁ہرن	-11.1539
▁بنتے	-11.1549
▁اسٹرا	-11.155
▁وائڈ	-11.1553
▁جلاوطن	-11.1554
▁رپورٹس	-11.1555
▁سلور	-11.1563
بڑ	-11.1568
روٹ	-11.1569
▁فیم	-11.1574
2.5	-11.1586
ja	-11.1597
سٹس	-11.1599
▁بھیجی	-11.1606
▁لوگو	-11.1616
لیئر	-11.1627
▁جوڑی	-11.1638
æ	-11.1651
!	-11.1651
▁تعصب	-11.1651
▁ہیمپشائر	-11.1651
▁برانچ	-11.1651
▁شاہراہ	-11.1651
▁کارپوریٹ	-11.1651
▁زیلڈا	-11.1651
▁معجز	-11.1651
▁تاثر	-11.1651
▁وائلن	-11.1651
▁اسٹینڈرڈ	-11.1651
▁فادر	-11.1651
▁معائن	-11.1652
▁زاوی	-11.1656
▁دیہات	-11.1657
▁پہنچت	-11.1664
▁1.2	-11.1666
▁Se	-11.1682
▁بھگ	-11.1694
▁ٹائی	-11.17
▁آئیں	-11.1701
▁تیس	-11.1706
▁جانتے	-11.171
▁گرو	-11.1721
▁فرائ	-11.1727
زیر	-11.1731
▁فریڈی	-11.1744
▁نیوٹن	-11.1752
▁یارڈ	-11.1753
1875	-11.1757
sta	-11.1772
▁کرنی	-11.1776
▁جل	-11.1788
▁کمیونیکیشن	-11.179
▁سوگ	-11.1801
ub	-11.1803
ü	-11.1817
▁عملدرآمد	-11.1817
▁کرسچن	-11.1817
▁نفرت	-11.1817
▁الہام	-11.1817
▁گھومت	-11.1818
▁کارٹون	-11.1818
▁ٹیکسٹائل	-11.1818
▁پیکیج	-11.1818
▁ٹشو	-11.1819
▁استثن	-11.1826
▁مونرو	-11.1828
▁پیوس	-11.1828
رتی	-11.1839
▁ورتھ	-11.1844
▁رال	-11.1855
▁لوئ	-11.1863
▁جوہان	-11.1866
جدید	-11.1872
▁واس	-11.188
ٹیورٹ	-11.1887
▁تبصرے	-11.1887
▁معاف	-11.1887
▁شپنگ	-11.1903
1923	-11.1906
▁برکل	-11.1923
▁Ne	-11.1936
▁حریفوں	-11.1939
ائزر	-11.1942
▁سرحدیں	-11.1947
▁ہارن	-11.195
▁تجاو	-11.196
پیٹ	-11.197
▁جسٹس	-11.1976
▁آذربائیجان	-11.1987
▁مراقبہ	-11.1987
▁پیتھوجین	-11.1987
▁ٹووالو	-11.1987
▁جمالیات	-11.1987
▁خاموش	-11.1987
▁ملبوس	-11.1987
▁بیسیلیک	-11.1988
چانک	-11.1988
کنواری	-11.1989
▁چائن	-11.199
▁1916	-11.1992
▁غص	-11.1992
▁سیکٹر	-11.1993
▁1839	-11.1996
▁کلید	-11.1997
▁امار	-11.2
ps	-11.201
▁عثمان	-11.201
▁رومانی	-11.2011
▁پارش	-11.2018
واڈ	-11.2021
سینو	-11.2028
کشش	-11.204
▁کرائی	-11.205
▁میسی	-11.2052
وگرافک	-11.2054
1901	-11.2055
▁تحفظات	-11.2062
ایف	-11.2064
▁سیونگ	-11.2066
ڈوس	-11.2087
▁To	-11.2087
▁ممالی	-11.209
1847	-11.2096
فارمیشن	-11.2098
1842	-11.2098
▁کریک	-11.2102
be	-11.2122
▁الیکٹر	-11.2131
بود	-11.2138
▁لوفتواف	-11.2159
▁جھوٹ	-11.2159
▁اوہائیو	-11.2159
گالیشیا	-11.2159
▁کلنٹن	-11.2159
▁اسٹیبل	-11.216
▁کھیت	-11.216
▁پرنسپل	-11.2161
▁بوڑھ	-11.2162
▁ریڈیکل	-11.2163
▁کریٹاسی	-11.2166
▁سواری	-11.2167
▁1836	-11.2169
▁برادر	-11.2181
▁خور	-11.2183
▁نعرہ	-11.2187
▁ٹرنر	-11.2195
▁جیٹ	-11.2201
und	-11.2207
سلر	-11.2211
all	-11.2221
وگو	-11.2237
-5	-11.2238
▁ٹونی	-11.2245
300	-11.2254
▁ٹریس	-11.2257
الٹی	-11.2262
سمار	-11.2285
lin	-11.2292
ژو	-11.2297
▁Li	-11.23
▁ہماری	-11.2311
com	-11.2313
1810	-11.2319
▁نیش	-11.2319
chi	-11.2322
وع	-11.2331
×	-11.2335
▁امتزاج	-11.2335
▁تقلید	-11.2335
▁جھلی	-11.2335
▁فتوح	-11.2335
▁فریکوئنسی	-11.2335
▁مہاکاوی	-11.2335
▁البلد	-11.2335
▁سفیر	-11.2335
▁اسپیشل	-11.2335
▁ٹھیک	-11.2335
1882	-11.2335
-13	-11.2335
▁پولرائزیشن	-11.2335
▁کیوبسٹ	-11.2335
▁ایکسچینج	-11.2335
▁انتونیو	-11.2337
▁اسٹڈیز	-11.2337
▁سکندر	-11.2337
▁عبدال	-11.2338
▁مکانی	-11.2338
میرا	-11.2338
ٹرومن	-11.234
▁نیلسن	-11.2342
▁گیٹس	-11.2343
▁پاتھ	-11.2346
▁ویٹو	-11.235
▁متغیرات	-11.2353
▁رویہ	-11.2355
ڈورف	-11.2357
▁جناز	-11.2359
▁کھوج	-11.2361
▁انرج	-11.2378
▁عراقی	-11.2398
▁بیگ	-11.24
وڈیو	-11.2406
▁پیشرو	-11.2408
1878	-11.2431
ویڈیو	-11.2433
ڈونگ	-11.2445
der	-11.245
راسک	-11.2454
ical	-11.2456
ریئرز	-11.2466
▁ٹاک	-11.247
▁افسرد	-11.2479
نگزی	-11.2481
▁اسٹارٹ	-11.2491
▁ابھرت	-11.2505
تاؤ	-11.2506
میٹک	-11.251
▁زرخیز	-11.2513
▁یونیفارم	-11.2513
ε	-11.2513
▁سونپ	-11.2513
▁ہاضم	-11.2513
▁چھلانگ	-11.2513
▁کچل	-11.2513
▁پورٹیبل	-11.2513
ٹریاسک	-11.2514
light	-11.2514
▁مجسٹریٹ	-11.2514
▁ہمسای	-11.2514
▁رسول	-11.2518
▁1935	-11.2519
▁پتیوں	-11.2521
ئیم	-11.2523
ینجمن	-11.2524
▁صفحات	-11.253
▁لیکچرز	-11.2532
▁قبولیت	-11.2534
▁(14	-11.254
▁لہج	-11.2542
▁نبی	-11.2553
▁ہیگل	-11.257
ولیج	-11.2571
▁راز	-11.2576
bu	-11.2595
راض	-11.2603
▁صوفی	-11.2603
tr	-11.2604
▁مہر	-11.2613
▁امیج	-11.2625
ect	-11.2633
▁مائن	-11.2634
▁گاہیں	-11.2638
▁ڈریک	-11.2641
▁گلڈ	-11.2642
▁In	-11.2678
مورا	-11.2683
▁نسلیں	-11.2684
▁فلائ	-11.269
▁پخت	-11.2693
▁فاؤنڈ	-11.2694
τ	-11.2695
▁انٹرپرائز	-11.2695
▁ٹرانسکرپشن	-11.2695
ɛ	-11.2695
▁البانیہ	-11.2695
▁مبہم	-11.2695
▁جھک	-11.2695
▁لیجنڈ	-11.2695
▁کیٹالونی	-11.2695
▁بوہیمی	-11.2695
▁کپتان	-11.2695
▁کنٹینر	-11.2695
▁اسپرنگ	-11.2696
▁وائرلیس	-11.2696
▁ترسیل	-11.2697
▁کرنل	-11.2698
▁بدام	-11.2699
▁چلی	-11.2701
▁سبزیوں	-11.2701
پیرس	-11.2702
▁فنانس	-11.2704
▁بروز	-11.2704
▁ریلیف	-11.271
▁چھپا	-11.271
▁باغات	-11.2714
مانی	-11.2724
▁Ba	-11.2727
▁ڈرا	-11.2758
▁لسٹ	-11.2761
روپ	-11.2766
▁کوالیفائی	-11.2774
▁سنک	-11.2776
▁ڈپول	-11.2778
ارتھ	-11.2782
▁پیپر	-11.2796
▁پلانٹس	-11.2801
▁لٹو	-11.2803
▁اربن	-11.2829
رٹیکس	-11.2841
▁فلائی	-11.2841
ویگ	-11.2846
▁مزاحم	-11.2856
▁کسٹم	-11.2857
▁مرسی	-11.2861
ولٹ	-11.2863
▁پراگ	-11.2876
▁گہرا	-11.2877
▁اناطولیہ	-11.288
▁انکارپوریٹ	-11.288
▁ایڈمنسٹریشن	-11.288
▁قفقاز	-11.288
▁کفالت	-11.288
▁1904	-11.288
▁ذائقہ	-11.288
▁رونالڈ	-11.288
▁احیا	-11.2881
▁ڈینیوب	-11.2881
طلع	-11.2881
▁دوہری	-11.2882
▁لپیٹ	-11.2883
▁کمایا	-11.2883
▁ہیلینسٹ	-11.2883
▁کیپٹل	-11.2884
▁گوگل	-11.2885
▁یونگل	-11.2888
▁پتے	-11.2889
برن	-11.2897
▁اوبر	-11.2903
lis	-11.2906
اسرار	-11.2907
▁فنکشنل	-11.2919
▁Ka	-11.292
چیسٹر	-11.2923
مینٹ	-11.2924
per	-11.2927
▁غار	-11.2929
▁اسٹیم	-11.2929
موشن	-11.293
▁Va	-11.2931
▁گند	-11.2941
▁خوشی	-11.2945
wi	-11.2945
▁وارن	-11.2947
▁پبلش	-11.295
▁مہنگا	-11.2956
▁لیوس	-11.296
نیف	-11.2967
▁فلٹر	-11.2972
▁کلون	-11.2975
▁فلک	-11.2981
▁صفر	-11.2983
▁گروو	-11.2987
15،000	-11.2989
▁سنگا	-11.2999
▁ایپس	-11.3025
▁ٹلس	-11.3032
پوسٹل	-11.3037
اگرچہ	-11.3046
موجودہ	-11.3046
سامان	-11.3049
سازی	-11.3051
▁تغیر	-11.3061
▁گلیشی	-11.3063
▁اسٹینل	-11.3068
▁انتھونی	-11.3069
▁گنبد	-11.3069
▁نامکمل	-11.3069
▁موزائیک	-11.3069
▁خزانہ	-11.3069
▁پروموشن	-11.307
▁ڈیجیمون	-11.307
▁رائفل	-11.307
▁ہیمبرگ	-11.3072
▁ڈربی	-11.3072
▁نوکری	-11.3077
▁اتھانیسس	-11.3077
▁انڈیز	-11.3077
▁سینسر	-11.3077
ڈکشن	-11.3082
▁نکات	-11.3085
▁اٹیک	-11.3089
▁طبقہ	-11.309
▁امیاد	-11.3093
▁چوہ	-11.3099
▁ساکھ	-11.3099
▁پیار	-11.3107
▁ریب	-11.3114
op	-11.3117
ST	-11.3125
▁وارڈ	-11.3147
گول	-11.316
اگلی	-11.3167
▁کامنز	-11.3174
▁(197	-11.3187
وزائی	-11.319
▁ایلیٹ	-11.3196
▁چھو	-11.3199
▁ہنر	-11.3202
▁ویگا	-11.3213
فارم	-11.3221
▁پگ	-11.3223
▁وبا	-11.3237
▁پنج	-11.3243
سیئس	-11.3256
▁تیرہو	-11.3258
▁تحف	-11.3261
▁ایمرجنسی	-11.3261
▁ڈھول	-11.3261
▁اسپانسر	-11.3261
▁جاسوسی	-11.3261
▁نااہل	-11.3261
▁تھراپی	-11.3261
▁شارلٹ	-11.3261
▁ڈائمنڈ	-11.3262
▁بیچلر	-11.3262
▁جادوگر	-11.3262
▁ہجے	-11.3263
▁کوئنز	-11.3263
▁منڈی	-11.3264
جرمن	-11.3264
▁آوازیں	-11.3265
▁رجمنٹ	-11.3265
▁ثق	-11.3268
ایچ	-11.3268
▁1872	-11.3269
▁ولسن	-11.3271
▁1849	-11.3271
▁1815	-11.3272
کانٹینینٹل	-11.3273
ay	-11.3277
▁منع	-11.3278
go	-11.3278
▁جمی	-11.328
▁آسکر	-11.328
▁انکوڈر	-11.3283
▁فیچر	-11.3284
شکن	-11.3296
یسٹا	-11.3312
▁130	-11.3319
▁چوک	-11.3331
،500	-11.3332
▁آرکیڈ	-11.3341
▁بوائے	-11.3341
▁اکائیوں	-11.3349
▁لڑاک	-11.3367
ris	-11.337
▁کروم	-11.3383
▁لینس	-11.3392
▁لینن	-11.3401
▁موج	-11.3413
-8	-11.3431
▁مذک	-11.3441
ium	-11.3446
▁سویٹ	-11.3454
بدسلوکی	-11.3457
▁کھدائی	-11.3457
▁ہوجائیں	-11.3457
▁مراکش	-11.3457
▁کارٹریج	-11.3457
▁دبایا	-11.3457
▁کمپریس	-11.3458
▁شبیہ	-11.3458
خلیفہ	-11.3458
پہر	-11.3459
CA	-11.3462
▁برنارڈ	-11.3463
▁سجایا	-11.3465
▁اردن	-11.3465
لیٹس	-11.3466
▁رومانس	-11.3467
▁منچوری	-11.3469
▁خسر	-11.347
▁آگسٹین	-11.3471
▁نوٹس	-11.3478
▁1400	-11.3481
▁ہیرا	-11.3484
▁چول	-11.3488
▁کمیونیکیشنز	-11.349
▁سنائی	-11.3493
بیل	-11.3495
رخانہ	-11.3495
▁ریجنٹ	-11.3496
ژ	-11.3498
▁کمپوزر	-11.3501
▁ایگل	-11.3503
ous	-11.3511
فوق	-11.3512
▁صفات	-11.3515
▁حادثات	-11.3523
ٹیشن	-11.3526
▁الگور	-11.353
ica	-11.3556
▁تھور	-11.3583
▁کلائن	-11.3584
ans	-11.3602
فع	-11.3605
ندر	-11.3607
▁زہریل	-11.3616
ٹونک	-11.3635
EC	-11.3645
▁ریپر	-11.3654
▁ٹیرا	-11.3654
ä	-11.3657
▁میگاواٹ	-11.3657
▁پھیپھڑ	-11.3657
▁خودکشی	-11.3657
▁کاتالونی	-11.3657
▁قسط	-11.3657
▁سوترا	-11.3657
▁ناروے	-11.3658
▁بھوک	-11.3658
▁پیڈمونٹ	-11.3658
▁Twi	-11.3658
▁سامراجی	-11.3659
▁رجسٹریشن	-11.366
▁ہالینڈ	-11.3661
▁مسخ	-11.3662
▁ڈریگن	-11.3662
▁وِ	-11.3663
▁ٹوائل	-11.3663
▁چیس	-11.3664
▁گیارہ	-11.3664
مشنریوں	-11.3665
▁1915	-11.3665
▁تکرار	-11.3666
▁ماؤس	-11.3669
لیوپول	-11.367
▁اکیس	-11.367
▁شوگر	-11.368
▁1820	-11.3682
▁پیج	-11.3683
گریٹ	-11.3685
ٹائن	-11.3687
▁مائنر	-11.3708
▁گولف	-11.3711
لمین	-11.3711
تھرو	-11.3714
▁ٹال	-11.3715
ڈیسن	-11.3753
1833	-11.3778
ment	-11.3787
▁Sch	-11.38
▁ایٹر	-11.3804
▁Pr	-11.3835
▁بخار	-11.3849
ولوجسٹ	-11.3861
گفتگو	-11.3861
▁انکوائری	-11.3861
▁بیپٹسٹ	-11.3862
▁ہستی	-11.3862
▁وٹامن	-11.3862
▁اسپیکٹر	-11.3862
▁ٹاسک	-11.3863
▁ایبٹ	-11.3864
▁سیرامک	-11.3864
▁پیٹرو	-11.3869
ju	-11.387
1902	-11.3875
▁25،000	-11.3882
▁Le	-11.3891
▁شفٹ	-11.3895
▁بروس	-11.3906
▁آپریٹر	-11.3907
▁میٹرکس	-11.3907
▁(198	-11.3909
▁گب	-11.3914
لوگ	-11.3922
▁بیلج	-11.3922
بنیادی	-11.3926
▁بارود	-11.3927
▁ہنس	-11.3928
لبرٹ	-11.3928
▁ورکنگ	-11.3928
ip	-11.3932
ella	-11.3946
▁گلے	-11.3956
son	-11.3959
▁ڈینیئ	-11.3967
▁Lo	-11.3968
▁بیٹل	-11.3971
▁اوب	-11.3972
▁ساشا	-11.3975
▁Bo	-11.3981
▁آپٹک	-11.3982
▁ایڈورڈز	-11.4001
1825	-11.4014
▁اسٹیمپ	-11.4025
1.9	-11.403
▁نماز	-11.4034
ble	-11.4042
ny	-11.4046
▁میکرو	-11.4056
▁مماثل	-11.4059
3.2	-11.4059
▁گورڈ	-11.406
الدین	-11.4062
ó	-11.407
ه	-11.407
▁خسار	-11.407
▁نظار	-11.407
▁نوادرات	-11.407
▁چوراہ	-11.407
▁ڈیفالٹ	-11.407
▁یونیسکو	-11.407
▁سراہا	-11.407
▁تلوار	-11.407
▁سمجھوت	-11.407
▁سرکلر	-11.407
▁گزارت	-11.407
▁ہولڈ	-11.407
▁مزار	-11.4071
▁وکیل	-11.4072
▁ڈیبیو	-11.4072
▁ڈیویڈ	-11.4073
▁خواب	-11.4073
▁گوانگ	-11.4074
▁کیمرون	-11.4074
▁گڑھ	-11.4074
▁1905	-11.4075
▁واٹسن	-11.4076
تفس	-11.4083
▁انزائم	-11.4083
▁تاثرات	-11.409
▁چارٹس	-11.409
▁ٹیمپل	-11.4093
▁1600	-11.4098
▁مرت	-11.4099
▁پلاٹین	-11.41
▁1200	-11.4103
▁کھائی	-11.4111
8،000	-11.412
▁1700	-11.412
▁ڈریم	-11.4121
▁لیچ	-11.4124
▁پاول	-11.4124
▁سبھی	-11.4125
▁تانگ	-11.413
▁مورفی	-11.4134
ناتھن	-11.4138
▁لیتی	-11.4144
▁بجات	-11.4173
▁پیکٹ	-11.4173
ten	-11.4177
-11	-11.4178
▁سازو	-11.4179
راث	-11.4187
▁ٹنگسٹ	-11.4191
فورٹ	-11.4191
▁منزلہ	-11.4202
▁ویرا	-11.4204
چرڈ	-11.423
▁مشیل	-11.4241
▁سوچت	-11.4245
الیا	-11.4249
جتنا	-11.4262
▁خادم	-11.4272
▁سپانسر	-11.4283
▁طحالب	-11.4283
▁چیواہوا	-11.4283
▁یوٹریچٹ	-11.4283
▁مترجم	-11.4283
▁آرنلڈ	-11.4283
▁گالیشین	-11.4283
▁شلاچ	-11.4283
▁مبارک	-11.4283
▁خاکہ	-11.4283
▁سیمینار	-11.4283
▁باندھ	-11.4283
بولا	-11.4283
▁محت	-11.4283
▁آٹوموبائل	-11.4284
▁انتون	-11.4284
▁کروشین	-11.4284
▁ٹائیگر	-11.4284
▁مرجان	-11.4285
عید	-11.4286
▁ضمیر	-11.4287
▁وینزو	-11.4287
▁استاد	-11.4289
▁نسبیت	-11.429
▁السیس	-11.4291
▁پڑھت	-11.4297
▁جادو	-11.4299
حض	-11.43
▁بارڈر	-11.4301
yl	-11.4305
▁کریول	-11.4313
▁کریگ	-11.4328
▁فائی	-11.4329
▁دیکھنا	-11.4331
▁بھیجت	-11.4336
▁ٹیبلٹ	-11.4342
▁ریشم	-11.4343
گوٹا	-11.4348
▁جدیدیت	-11.4352
fa	-11.4352
▁ریپبلکنز	-11.4353
▁بجان	-11.4354
▁Ha	-11.4366
بذ	-11.4383
▁کیرول	-11.4383
1776	-11.4394
پتہ	-11.4397
سیلٹک	-11.4412
تناسب	-11.4413
جیانگ	-11.4418
▁Po	-11.442
gra	-11.442
وریج	-11.443
ائق	-11.4434
ٹونین	-11.4445
▁ہولی	-11.4459
ix	-11.4461
▁شرٹ	-11.4474
منڈو	-11.4483
za	-11.4484
▁پاؤ	-11.4484
▁ماریان	-11.4487
=	-11.45
▁شعاع	-11.45
▁مرغیوں	-11.45
▁کرسٹوفر	-11.45
▁ہولوکاسٹ	-11.45
▁گزرگاہ	-11.45
▁نوشتہ	-11.45
کھنڈ	-11.45
▁امیونولوج	-11.45
▁ڈونلڈ	-11.45
▁ہبسبرگ	-11.45
▁کھایا	-11.4501
▁کاشتکاری	-11.4501
▁مائکروفون	-11.4501
▁پیٹریاٹ	-11.4501
▁کشمیر	-11.4502
▁ٹوالو	-11.4503
▁فلاح	-11.4503
▁لٹکا	-11.4504
▁تجزیاتی	-11.4505
▁پچاس	-11.4506
▁جیومیٹر	-11.4506
▁امینو	-11.4507
دود	-11.4508
▁ڈیفی	-11.4509
▁ٹوکری	-11.4511
▁ریوڑ	-11.4514
▁ہومر	-11.4515
▁3.0	-11.4522
▁235	-11.4522
▁2500	-11.4526
▁128	-11.4527
اگون	-11.4528
▁مینڈیٹ	-11.4529
uk	-11.453
▁ملایا	-11.4541
▁کلسٹر	-11.4546
ونٹی	-11.4565
▁ویلیم	-11.4568
▁اوٹو	-11.457
ریئر	-11.4577
▁یوٹا	-11.4591
▁کاغذات	-11.4593
▁بابل	-11.4599
▁پہن	-11.4599
▁ٹائل	-11.4602
1863	-11.4603
▁ہیوی	-11.4612
▁ربی	-11.4625
▁Pe	-11.4625
الیف	-11.4641
لائیڈ	-11.4649
▁ڈیانا	-11.465
▁کریٹ	-11.4663
▁بھاگن	-11.4667
▁لیسٹ	-11.4669
▁ٹرائل	-11.4669
cul	-11.467
▁ملاح	-11.467
▁مالٹ	-11.4679
ورج	-11.4687
▁61	-11.469
▁گلوب	-11.4696
بھا	-11.4698
2.6	-11.4713
ریون	-11.472
▁فرڈینینڈ	-11.4722
▁معاشرہ	-11.4722
▁چوڑائی	-11.4722
▁ہائبرڈ	-11.4722
è	-11.4722
π	-11.4722
معقول	-11.4722
▁تھنڈر	-11.4722
▁میتھیو	-11.4722
▁شیطان	-11.4722
▁معذور	-11.4722
▁ملحد	-11.4722
▁گزارے	-11.4722
تفری	-11.4722
▁سرجری	-11.4722
▁پیشکش	-11.4723
▁کمپاس	-11.4723
▁مہاجر	-11.4724
▁گورنمنٹ	-11.4724
▁بٹالین	-11.4726
▁سیفٹی	-11.4727
▁اندھیر	-11.4728
Zn	-11.4728
▁نیچرل	-11.4728
▁پندرہ	-11.4732
▁رخ	-11.4737
▁شاپ	-11.4739
▁دادی	-11.474
ty	-11.4745
▁1.1	-11.4746
فکری	-11.4749
مذاق	-11.4766
نڈوتھ	-11.4773
▁گھن	-11.4775
▁ایکویٹی	-11.4777
▁میپ	-11.4796
▁پھیلان	-11.4814
1789	-11.4838
ینٹل	-11.4846
فکسڈ	-11.4853
▁ڈرل	-11.4855
لیتھک	-11.4865
▁فوک	-11.4867
▁لیمب	-11.4869
▁برین	-11.4869
▁انتہا	-11.4879
▁گایا	-11.4884
°	-11.489
کبھی	-11.4891
▁ٹیکسٹ	-11.4895
نجر	-11.4913
▁زار	-11.4921
▁نواز	-11.4922
▁An	-11.4927
▁کمیونز	-11.4928
we	-11.4932
▁شوقی	-11.4933
▁لڑ	-11.4934
▁گود	-11.4943
ο	-11.4949
ς	-11.4949
%	-11.4949
▁Ptolem	-11.4949
▁ابراہیم	-11.4949
▁محنت	-11.4949
▁اسماعیل	-11.4949
▁گارنیشن	-11.4949
▁وژن	-11.4949
▁اجرت	-11.4949
olog	-11.495
▁بہادر	-11.495
▁پرائیویٹ	-11.495
▁چھڑی	-11.495
یوحنا	-11.495
▁منتظمین	-11.495
▁پیتل	-11.4951
▁آریائی	-11.4951
▁بائیک	-11.4952
▁بلوط	-11.4953
▁ہورہ	-11.4953
▁1906	-11.4954
▁پرسنل	-11.4955
▁کنندگان	-11.4956
▁1838	-11.4956
▁ہارپر	-11.4958
▁عددی	-11.4959
▁Ar	-11.4959
زگار	-11.496
5.2	-11.496
▁بخارات	-11.4964
▁جنکشن	-11.4971
▁الیکس	-11.4971
▁کندہ	-11.4974
▁تنہا	-11.4976
▁پلگ	-11.4977
چار	-11.4979
ٹالین	-11.4982
▁مرح	-11.4985
▁آنکھیں	-11.4988
▁خیمہ	-11.4988
ez	-11.4995
▁بوئ	-11.5
▁الٹا	-11.5005
4.7	-11.5017
فیلیا	-11.5017
▁بندش	-11.5021
▁رہنا	-11.5026
▁ریان	-11.5033
▁He	-11.5039
▁میرٹ	-11.5043
▁قلی	-11.5043
▁برٹن	-11.5051
▁پروٹیک	-11.5052
چیمپ	-11.5053
1874	-11.5063
1896	-11.5065
1750	-11.5073
▁اکائی	-11.5081
تدل	-11.5081
2.4	-11.5083
▁آبادکار	-11.5091
1858	-11.5092
▁ٹوپی	-11.51
▁پائ	-11.5106
▁امب	-11.5108
▁لونگ	-11.5108
▁دلائ	-11.5108
ther	-11.5114
وفیل	-11.5115
مبرٹ	-11.5117
▁کمپن	-11.5123
حفاظتی	-11.5123
▁پلائ	-11.5127
▁Ju	-11.5141
▁ایڈون	-11.5148
ائیکاٹ	-11.515
جان	-11.5163
وینٹی	-11.5164
▁چڑھائ	-11.5167
پولیس	-11.5169
▁میگنیٹ	-11.5181
▁چودہ	-11.5182
half	-11.5182
▁PAL	-11.5182
▁اوبلاست	-11.5182
▁اولمپیا	-11.5182
▁بصیرت	-11.5182
▁ذیابیطس	-11.5182
▁ڈگلس	-11.5182
▁نمٹا	-11.5182
▁نفیس	-11.5182
▁قالین	-11.5182
اہرہ	-11.5182
▁آرکیٹیکٹ	-11.5182
▁نکولائ	-11.5182
▁سنتھیس	-11.5182
▁ورجیل	-11.5182
▁آئک	-11.5183
CAR	-11.5183
▁چالیس	-11.5184
▁جنریٹر	-11.5185
▁فرینڈ	-11.5185
▁فارورڈ	-11.5186
▁مورگن	-11.5189
▁1835	-11.5193
▁MP	-11.5193
▁1846	-11.5194
▁مفکر	-11.5196
▁گزین	-11.5202
اللہ	-11.5204
▁کہانیاں	-11.5212
▁کسٹمر	-11.5221
▁سنٹر	-11.5232
▁ماریو	-11.5233
سینڈر	-11.5235
▁Be	-11.5236
▁کارلو	-11.5239
▁باتھ	-11.5255
▁لوکو	-11.5256
▁350	-11.5261
اندھی	-11.5271
▁شیڈ	-11.5272
وزوک	-11.5299
tive	-11.5308
tal	-11.5318
مردانہ	-11.5321
▁ڈیسری	-11.5322
▁دکھان	-11.5325
▁ہومو	-11.5335
سیلا	-11.5337
den	-11.5344
tas	-11.5356
▁وٹن	-11.5368
نظر	-11.5396
▁قرب	-11.5404
ِ	-11.5411
ثیر	-11.542
>	-11.542
à	-11.542
لوزیانا	-11.542
▁استحقاق	-11.542
▁استنبول	-11.542
▁جھٹک	-11.542
▁خرگوش	-11.542
▁سپاہی	-11.542
▁ولادیمیر	-11.542
▁چرواہ	-11.542
▁کولوراڈو	-11.542
▁رشوت	-11.542
▁وایلیٹ	-11.542
▁ایڈوانس	-11.542
▁مصور	-11.542
▁دخل	-11.542
▁پارتھین	-11.542
زیورات	-11.5421
igh	-11.5421
▁تیمور	-11.5421
▁لگائے	-11.5424
▁مسوری	-11.5425
▁بوٹیوں	-11.5425
▁کزن	-11.5426
▁1877	-11.5431
▁1821	-11.5431
▁سدر	-11.5433
▁1895	-11.5435
▁بوب	-11.5438
ہلکا	-11.5441
▁الفا	-11.5442
▁کمپوزیشن	-11.5446
سٹائل	-11.545
ion	-11.5451
▁اکیل	-11.5451
پیش	-11.5459
▁سنجیدہ	-11.5466
ریٹا	-11.5473
▁وکر	-11.549
نہائی	-11.5495
je	-11.5496
▁شاک	-11.5506
▁پلاس	-11.551
والڈ	-11.5511
رولنگ	-11.5533
lan	-11.555
▁132	-11.5555
▁بائٹ	-11.5557
▁پگھل	-11.5558
▁بدعنوان	-11.5568
RE	-11.557
▁ٹرانسف	-11.5574
▁چڑھن	-11.5582
▁الما	-11.5583
▁فرن	-11.5601
▁پالپ	-11.5608
جید	-11.5615
ریگن	-11.562
▁اپارٹمنٹ	-11.5638
▁تعمی	-11.5649
▁امتحان	-11.5651
پینز	-11.5659
▁لچک	-11.5662
ö	-11.5664
ū	-11.5664
میٹابولزم	-11.5664
▁تبلیغ	-11.5664
▁شاگرد	-11.5664
▁لوازمات	-11.5664
▁پھوٹ	-11.5664
▁چانسلر	-11.5664
▁کیٹلاگ	-11.5664
▁گھونسل	-11.5664
▁افواہ	-11.5664
ṣ	-11.5664
▁برہمن	-11.5664
▁ژانگ	-11.5664
▁USB	-11.5664
▁پڑی	-11.5664
▁ایڈونچر	-11.5665
تھرین	-11.5665
▁گوریلا	-11.5666
عیش	-11.5667
▁وِگ	-11.5667
▁ڈپریشن	-11.5668
▁فولڈ	-11.567
ən	-11.5671
▁کردے	-11.5672
▁1889	-11.5673
دیکھیں	-11.5674
آبادیاتی	-11.5675
فرانسیسی	-11.568
جنوبی	-11.5681
▁خودکار	-11.5681
▁پالمر	-11.5684
▁ابھرن	-11.5684
▁ملتوی	-11.569
▁Car	-11.5693
▁12،000	-11.5693
▁مارکو	-11.5698
▁شرم	-11.5703
ٹروف	-11.5705
-6	-11.5706
▁فالٹ	-11.571
▁ایڈنبر	-11.571
▁ہاکین	-11.5712
نسٹن	-11.5714
▁زہریلا	-11.5715
گھم	-11.5729
ٹولز	-11.5743
▁کنب	-11.5752
▁بیٹھا	-11.5754
ریٹس	-11.5755
:00	-11.5756
▁لگاتا	-11.5759
▁اڑا	-11.576
ger	-11.577
▁گیج	-11.5772
▁پریمی	-11.5779
▁پام	-11.5779
▁فرانکو	-11.5804
پتی	-11.5808
▁فیکٹر	-11.5815
▁زخم	-11.5818
▁فوٹ	-11.5849
▁عط	-11.585
▁انکوڈ	-11.5875
▁So	-11.5875
▁Ga	-11.5879
rn	-11.5887
ano	-11.5888
▁انتظا	-11.5895
222	-11.5904
لیکٹ	-11.5906
ماؤتھ	-11.5909
▁الجزائر	-11.5914
▁جغرافیہ	-11.5914
▁مشغول	-11.5914
▁مصلوب	-11.5914
▁مونٹریال	-11.5914
▁وائکنگ	-11.5914
▁آبزرویٹری	-11.5914
▁ٹرانسفارمر	-11.5914
▁انجکشن	-11.5914
▁ٹیریٹری	-11.5914
▁تھیوڈور	-11.5914
▁رحم	-11.5914
▁موزارٹ	-11.5915
تلافی	-11.5915
▁سیڑھی	-11.5915
▁ٹرپل	-11.5915
6.4	-11.5917
▁گالیسی	-11.5918
▁ڈیزل	-11.5921
▁چیخ	-11.5922
▁ہائپو	-11.5923
▁ڈراپ	-11.5924
▁ٹریپ	-11.5925
▁1851	-11.5925
▁1873	-11.593
ینٹین	-11.593
تھمپٹن	-11.5931
▁سولڈر	-11.5933
▁شافٹ	-11.5935
▁پرستار	-11.594
▁بوم	-11.5942
▁اپالاچین	-11.5946
▁آگئی	-11.5951
▁سلپ	-11.5951
1.6	-11.5953
▁50،000	-11.5954
▁وینیل	-11.5954
مقدم	-11.5957
چانگ	-11.5965
تشر	-11.5972
▁یوگا	-11.5973
▁پھیلت	-11.5976
▁لوتھرن	-11.5979
پیلا	-11.5999
SE	-11.6002
▁گارڈین	-11.6005
نیکو	-11.6015
▁ڈونڈ	-11.6041
▁صوفیان	-11.6042
▁گریگ	-11.6056
▁بلوم	-11.6057
▁روبی	-11.6063
3.6	-11.6065
رنیل	-11.6084
سلام	-11.6089
▁پکان	-11.6093
▁قربان	-11.6096
فرین	-11.61
روچ	-11.6104
▁فائٹ	-11.6117
انڈا	-11.6118
▁سنجید	-11.6126
▁Am	-11.6133
OS	-11.6134
▁لیکچر	-11.6147
AT	-11.6148
▁Da	-11.6159
▁لاب	-11.6165
ɔ	-11.617
▁Princ	-11.617
ō	-11.617
▁اپوسٹول	-11.617
▁باویریا	-11.617
▁جھگڑ	-11.617
▁حاکم	-11.617
▁مترادف	-11.617
▁ورچوئل	-11.617
▁پروپیگنڈ	-11.617
▁کاربوہائیڈریٹ	-11.617
▁سلنڈر	-11.617
▁نمائندگان	-11.617
▁نقد	-11.617
▁چیلسی	-11.617
▁بھیڑیا	-11.6171
▁ہمدرد	-11.6171
▁نازک	-11.6171
▁ضمیمہ	-11.6171
▁جرنیل	-11.6171
▁تفریق	-11.6171
▁پومپی	-11.6172
افوٹی	-11.6172
▁0.2	-11.6172
▁موٹاپ	-11.6173
▁فاسٹ	-11.6174
▁نثر	-11.6176
▁مشروبات	-11.6177
▁1894	-11.6179
▁بلانک	-11.6179
مپائر	-11.6182
▁1866	-11.6182
▁1892	-11.6185
IX	-11.6188
▁گھڑیاں	-11.6188
▁فائن	-11.619
▁چکن	-11.6195
▁یورین	-11.6196
▁کھینچنے	-11.6197
▁معاوض	-11.6203
▁نکلنے	-11.6205
▁جڑو	-11.6217
▁ویگن	-11.622
▁منائی	-11.6223
ڈینش	-11.6226
▁سلاٹ	-11.6228
اکثر	-11.6247
▁ناسا	-11.6259
ساکی	-11.626
▁ڈب	-11.6289
▁گریس	-11.6327
▁بیڑ	-11.6342
▁براڈکاسٹر	-11.6377
انڈور	-11.6379
▁3000	-11.6381
▁Ta	-11.6382
BA	-11.6386
ٹرینڈ	-11.639
▁پہل	-11.6415
چھٹا	-11.6415
ستند	-11.6434
ɑ	-11.6434
&	-11.6434
bird	-11.6434
í	-11.6434
▁ریگولیشن	-11.6434
▁میسوپوٹیمیا	-11.6434
▁ٹربیون	-11.6434
▁ڈائیوسیس	-11.6434
ά	-11.6434
▁جھڑپ	-11.6434
▁بدوش	-11.6434
▁شفاف	-11.6434
▁تیونس	-11.6434
▁صحافت	-11.6434
▁ایڈولف	-11.6434
ocking	-11.6434
▁بکھر	-11.6434
▁اراگون	-11.6434
▁انسولین	-11.6434
▁پیٹرولیم	-11.6434
▁غدود	-11.6434
▁فلمایا	-11.6434
▁پٹرولیم	-11.6435
▁اسمگل	-11.6435
▁نیورونز	-11.6436
▁سلائیڈ	-11.6437
▁پیپسی	-11.6437
▁نارمنڈی	-11.6438
▁لتھوانیائی	-11.644
▁اولیگ	-11.6442
▁کاریگر	-11.6451
▁مونٹگ	-11.6452
▁انڈیانا	-11.6454
▁سٹرنگ	-11.6458
▁پھیلایا	-11.6459
▁ٹرمپ	-11.6463
وئٹ	-11.6469
▁کینال	-11.6473
▁سلیم	-11.6475
gen	-11.6488
▁ویمن	-11.6489
▁تردید	-11.6494
▁گیلو	-11.6496
▁ہیرس	-11.6499
▁اسٹینڈ	-11.6508
ونڈو	-11.651
MA	-11.6511
لیٹن	-11.6534
▁پروٹون	-11.6554
▁نشی	-11.6555
▁ڈورک	-11.6581
nz	-11.6585
مکاسٹ	-11.6585
یلسن	-11.6595
125	-11.6597
تما	-11.662
▁رینی	-11.6655
▁روب	-11.6662
▁اٹھارہو	-11.667
IC	-11.6676
ُ	-11.6704
▁انحراف	-11.6704
▁زیادتی	-11.6704
▁چیکوسلوواکیہ	-11.6704
▁گھلنشیل	-11.6704
▁خالق	-11.6704
▁بھیڑیوں	-11.6704
▁چچا	-11.6704
▁کنکریٹ	-11.6704
▁سیگمنٹ	-11.6704
میونخ	-11.6704
▁ریچھ	-11.6704
▁کیوبیک	-11.6704
لوقا	-11.6705
▁پویلین	-11.6705
▁سٹرلنگ	-11.6705
▁Kill	-11.6705
▁پختگی	-11.6707
نٹینڈو	-11.6708
▁ناراضگی	-11.6708
▁1926	-11.6713
▁پاش	-11.6714
▁1824	-11.6716
▁گلوکو	-11.6718
▁1788	-11.6718
▁وولف	-11.6721
▁قاتل	-11.6722
▁جینیف	-11.6723
▁300،000	-11.6723
▁نیگرو	-11.6724
▁لگانا	-11.6727
الگو	-11.673
▁ڈوبنے	-11.6731
▁چیئر	-11.6732
▁اپارٹمنٹس	-11.6732
▁روتھ	-11.6735
▁پیلیو	-11.6735
▁شاٹ	-11.6769
▁110	-11.6781
مشکلات	-11.6782
ide	-11.6783
ازار	-11.6783
ڈوکس	-11.6792
کلف	-11.6802
ies	-11.6818
▁کھان	-11.682
▁Con	-11.6824
tro	-11.6825
▁اسپائ	-11.6836
پروشین	-11.6839
▁چالو	-11.684
یورپی	-11.6842
▁ارون	-11.6845
قومی	-11.6846
AA	-11.6866
▁ویلیو	-11.6903
پایا۔	-11.6905
1879	-11.6937
▁(194	-11.6947
mes	-11.6956
روکی	-11.6957
ov	-11.696
ven	-11.6974
▁رفت	-11.6979
▁تخریب	-11.6982
▁فینوٹائپ	-11.6982
▁قازقستان	-11.6982
▁موگادیش	-11.6982
▁وائسرائ	-11.6982
ω	-11.6982
▁آمریت	-11.6982
▁افسوس	-11.6982
▁بینیڈکٹ	-11.6982
▁تھراواڈ	-11.6982
▁موصل	-11.6982
▁اوورلیپ	-11.6982
▁سرٹیفکیٹ	-11.6982
▁میگوئل	-11.6982
▁لزبن	-11.6982
▁دھوپ	-11.6982
▁لکھنا	-11.6985
▁خوشبو	-11.6987
▁جلوس	-11.6987
▁ہیملٹن	-11.6988
▁مانیٹر	-11.6988
▁مینوئل	-11.6989
▁نورڈ	-11.699
▁اموی	-11.6995
▁1856	-11.6997
▁فلوٹ	-11.6999
▁گائے	-11.7004
▁فرشتہ	-11.7004
▁1.0	-11.701
▁نینو	-11.7011
▁3.1	-11.7017
▁کلرک	-11.702
▁فیوڈ	-11.702
▁عمو	-11.702
▁فائیو	-11.7021
▁ڈش	-11.7023
▁کنڈیشنر	-11.7043
fer	-11.7047
▁فارسٹ	-11.7054
van	-11.7058
▁Te	-11.7064
▁نیکول	-11.7065
چسٹر	-11.7072
1884	-11.7075
▁گلا	-11.7075
▁لوب	-11.7076
▁جمناسٹ	-11.7079
▁حب	-11.7081
کھائے	-11.7092
کریٹک	-11.7095
OR	-11.7097
SC	-11.7102
▁ڈوئ	-11.7105
1829	-11.7107
▁روبن	-11.711
▁Mo	-11.7115
▁لکھ	-11.7138
1814	-11.7147
کوسٹا	-11.7151
زیادہ	-11.7154
یونانی	-11.7154
▁سمو	-11.7157
بہت	-11.7158
1790	-11.7158
▁طل	-11.7173
cor	-11.7175
▁گیلگ	-11.7213
ارینا	-11.7215
▁خیم	-11.7221
▁تھورنگی	-11.7237
▁1080	-11.7241
▁بوسنیا	-11.7242
ius	-11.7252
بست	-11.7254
▁معدنی	-11.7255
ish	-11.726
بنائے	-11.7262
▁اسکواڈ	-11.7267
θ	-11.7267
▁طاعون	-11.7267
▁پریزنٹیشن	-11.7267
▁چاہئیں	-11.7267
έ	-11.7267
حشرات	-11.7267
▁برمنگھم	-11.7267
▁سلووینیا	-11.7267
▁موومنٹ	-11.7267
▁کاربونیٹ	-11.7267
▁مقبر	-11.7267
▁پروفائل	-11.7267
▁ذہانت	-11.7268
▁ضرب	-11.7268
▁چراغ	-11.7268
▁گزارن	-11.7268
▁پینتھر	-11.7268
▁الجبر	-11.7268
▁گودام	-11.7268
▁اینٹیگون	-11.7269
▁صدور	-11.727
▁آئیڈیلز	-11.727
▁چالک	-11.7273
▁لیونارڈ	-11.7274
4.5	-11.7275
▁1644	-11.7277
بیانات	-11.728
▁1812	-11.728
▁لنگر	-11.728
▁نورڈک	-11.7282
▁1868	-11.7283
گارٹن	-11.7287
▁فیکٹ	-11.7288
▁ٹارک	-11.7298
▁سلم	-11.7301
معین	-11.7304
▁چلانا	-11.7305
▁شیلف	-11.7312
▁ٹورنٹ	-11.7324
▁سانپ	-11.7325
▁سرکس	-11.7333
▁ریپڈ	-11.7334
ance	-11.7335
▁سومر	-11.7339
▁3،000	-11.734
▁بڑھات	-11.7344
▁Br	-11.7364
▁ڈینیل	-11.7369
بینڈ	-11.7373
▁پہنچات	-11.739
▁رج	-11.7395
گنیٹ	-11.7399
1888	-11.74
شوٹنگ	-11.7403
مالیہ	-11.7403
لیموس	-11.7412
▁وارنٹ	-11.7428
1.7	-11.7434
▁109	-11.747
تصادم	-11.7472
مشق	-11.7474
پرتگالی	-11.7475
(	-11.7476
▁ٹوپ	-11.7478
▁ریمس	-11.7496
4.6	-11.7499
▁شیڈو	-11.7536
▁Athanasius	-11.7561
▁اعدادوشمار	-11.7561
▁بیوروکریسی	-11.7561
▁پروفیشنل	-11.7561
▁پھیری	-11.7561
▁ڈھانپ	-11.7561
μ	-11.7561
▁بھتیج	-11.7561
▁حفظ	-11.7561
▁قطار	-11.7561
▁لاحق	-11.7561
▁لیکسنگٹن	-11.7561
▁گپتا	-11.7561
▁سیکورٹی	-11.7561
▁مداح	-11.7561
▁حویلی	-11.7561
▁یوکاریوٹ	-11.7561
▁الائنس	-11.7562
▁تدریس	-11.7562
▁اناٹومی	-11.7562
▁عظم	-11.7562
ος	-11.7562
▁مضمر	-11.7562
▁حرب	-11.7562
،600	-11.7562
▁چادر	-11.7563
▁ارنسٹ	-11.7563
▁وحی	-11.7564
▁شریع	-11.7568
▁1869	-11.7575
▁1845	-11.7575
▁امتحانات	-11.7577
▁بلیئر	-11.7583
▁لیبیائی	-11.7588
یگون	-11.7588
▁Go	-11.7594
▁نانو	-11.7613
چمکدار	-11.7638
▁برش	-11.7653
▁انگریز	-11.7663
3.7	-11.7676
▁چیری	-11.768
aj	-11.769
▁پش	-11.7695
▁لڑت	-11.77
▁XII	-11.7725
▁سکھان	-11.7729
2.1	-11.7736
▁افیو	-11.7744
روڈو	-11.7767
▁Gu	-11.7802
عظیم	-11.7809
کچھ	-11.781
▁نعر	-11.7816
▁رائٹر	-11.7821
سپیئر	-11.7823
خبریں	-11.7829
▁ٹیکنو	-11.7859
▁آبپاشی	-11.7864
▁اونٹاریو	-11.7864
▁برینڈنبرگ	-11.7864
▁تحائف	-11.7864
▁تقدیر	-11.7864
▁سنسرشپ	-11.7864
▁نیوکلیئس	-11.7865
▁دہرایا	-11.7865
▁دہندہ	-11.7865
▁گڑیا	-11.7865
▁ہاؤنڈ	-11.7865
▁فزیکل	-11.7865
▁سترہ	-11.7865
▁کبوتر	-11.7865
▁پروٹوٹائپ	-11.7865
▁فلوروسین	-11.7865
▁فلیش	-11.7865
▁کنزرویٹری	-11.7865
▁جواہر	-11.7866
وگاوا	-11.7866
▁ایڈمنڈ	-11.7867
▁فلینڈر	-11.7868
▁رگڑ	-11.7868
▁ویکسینیشن	-11.7868
▁ناریل	-11.7869
▁ڈارٹ	-11.787
▁کھوئے	-11.787
▁فیلکس	-11.787
TF	-11.7871
▁حسن	-11.7872
▁کردیں	-11.7875
▁پورٹسماؤ	-11.7875
▁پولینیش	-11.7875
▁گشت	-11.7876
▁کیڑا	-11.7876
▁پہنایا	-11.7877
▁1899	-11.788
▁انٹیگریٹ	-11.7881
▁اسپارٹ	-11.7881
▁غدار	-11.7886
مرسیٹ	-11.7895
▁فیڈرلسٹ	-11.7898
▁آکٹ	-11.79
▁60،000	-11.7902
▁ربن	-11.7911
رالڈ	-11.7918
▁Ra	-11.7937
af	-11.7965
اعلیٰ	-11.7986
▁بوئنگ	-11.7993
ڈیاز	-11.8019
مچھلیوں	-11.8023
ونسٹن	-11.8038
▁عص	-11.8089
▁Je	-11.8089
shi	-11.8096
ome	-11.8109
▁اترن	-11.8115
▁نمی	-11.812
پیڈو	-11.8122
RO	-11.8136
▁سنبھالت	-11.8146
سنسکرت	-11.8152
4.8	-11.8154
▁مائک	-11.8165
ity	-11.8173
q	-11.8175
▁سرٹیف	-11.8177
а	-11.8177
▁مائکروجنزم	-11.8177
▁پروجیکشن	-11.8177
▁پینگوئن	-11.8177
▁ڈپلوم	-11.8177
▁اغوا	-11.8177
▁اقتباس	-11.8177
▁میتھین	-11.8177
▁رئیل	-11.8177
▁پیلیولیتھک	-11.8177
▁سکاؤٹ	-11.8177
▁مٹھی	-11.8177
▁چیروکی	-11.8178
▁کھاد	-11.8178
یومر	-11.8178
▁بارٹلم	-11.8179
▁اسٹروک	-11.8182
▁جگر	-11.8182
▁پرائس	-11.8184
▁کلوروف	-11.8184
▁1843	-11.8193
los	-11.8195
▁ٹریول	-11.8196
▁غلطیاں	-11.8202
▁2.2	-11.8203
2.3	-11.8206
rist	-11.8208
▁ٹیٹرا	-11.821
▁لبر	-11.8211
▁رائلٹی	-11.8213
▁ٹپ	-11.8233
ڈیپ	-11.8243
▁پروسیس	-11.8244
▁سکریپ	-11.8244
▁کینڈی	-11.8255
OK	-11.8259
3.4	-11.8262
فارمز	-11.8272
▁سجا	-11.8275
،000،000	-11.8282
Cu	-11.8314
ضابطہ	-11.8317
▁ٹویٹ	-11.8318
نیکا	-11.836
نہوا	-11.8368
Si	-11.8373
▁اثاث	-11.8395
1795	-11.8399
5.6	-11.8402
▁ناتھ	-11.8411
زید	-11.8418
▁کمپوز	-11.8427
▁سلا	-11.8441
▁غلب	-11.8451
bit	-11.8461
جاگ	-11.8474
▁انٹرسٹی	-11.8484
▁ریپبلک	-11.8484
▁سفار	-11.8484
ı	-11.85
▁آزمائش	-11.85
▁استعار	-11.85
▁رینڈرنگ	-11.85
▁ٹھہرایا	-11.85
▁پراپرٹی	-11.85
▁پریکٹیشنر	-11.85
▁باورچی	-11.85
▁تماشائی	-11.85
▁زنجیر	-11.85
▁آلودہ	-11.85
▁سیئول	-11.85
▁پکاسو	-11.85
▁آمیز	-11.85
ARA	-11.85
▁ایجنڈ	-11.85
▁الفونس	-11.8501
▁کینٹرب	-11.8502
▁ویمبل	-11.8502
▁چاہیے	-11.8503
▁مشتق	-11.8503
▁کنگڈم	-11.8504
▁افریک	-11.8504
▁یانکی	-11.8505
▁ٹمپ	-11.8506
▁اڑایا	-11.8507
▁دفع	-11.8507
▁دھون	-11.851
▁1832	-11.8511
▁نائیج	-11.8511
▁1862	-11.8512
▁اسابیل	-11.8513
▁ٹسک	-11.8515
▁1885	-11.8516
▁لبرٹی	-11.8518
▁1864	-11.8521
▁یوجین	-11.8524
▁اٹار	-11.8536
ٹیریا	-11.856
▁ٹارٹ	-11.8584
▁براک	-11.8598
▁برادران	-11.861
▁دکھا	-11.8624
▁اڑان	-11.8669
▁باؤر	-11.8685
▁ڈاگ	-11.8685
انزا	-11.8727
1834	-11.8742
AG	-11.8758
▁فونوگراف	-11.8783
زائم	-11.8819
▁معاو	-11.8826
γ	-11.8833
δ	-11.8833
سلوواکیہ	-11.8833
▁انتقام	-11.8833
▁راجپوت	-11.8833
▁فاسفورس	-11.8833
▁مشروط	-11.8833
▁ڈرائنگ	-11.8833
▁کھوپڑی	-11.8833
▁ہائیڈرائڈ	-11.8833
Cubs	-11.8833
▁ساردین	-11.8833
دھرما	-11.8833
▁کرسکیں	-11.8833
,600	-11.8833
▁الساس	-11.8834
▁زیجیانگ	-11.8834
▁کمرشل	-11.8835
▁سومرسٹ	-11.8837
▁مائر	-11.8838
anti	-11.8841
ڈیلفی	-11.8841
▁1831	-11.8842
چینج	-11.8842
▁اسٹریپ	-11.8843
▁کورپس	-11.8843
▁سزاؤں	-11.8845
▁1897	-11.8845
▁1791	-11.8853
▁چھتری	-11.8854
میگنیٹس	-11.8855
▁پیرینی	-11.886
وسکوپ	-11.8867
▁لیمل	-11.8869
سرچ	-11.8871
ہسپانوی	-11.8881
برطانوی	-11.8882
▁سامرا	-11.8882
▁ہارل	-11.8889
،200	-11.8895
▁پینسل	-11.8909
108	-11.8931
▁Com	-11.8956
9.5	-11.8965
▁اسپیر	-11.898
▁فولی	-11.8992
▁دھماک	-11.8996
1822	-11.9013
1758	-11.903
1807	-11.9031
▁لنڈ	-11.9163
▁محب	-11.9167
▁ازبکستان	-11.9178
▁اسکاؤٹ	-11.9178
▁انڈپینڈنٹ	-11.9178
▁تلچھٹ	-11.9178
▁سلواڈور	-11.9178
▁فاسفیٹ	-11.9178
▁لومبارڈ	-11.9178
▁ڈایناسور	-11.9178
▁گھوڑسواری	-11.9178
براسیلیا	-11.9178
▁MPEG	-11.9178
▁عسکری	-11.9178
▁فرینکفرٹ	-11.9178
▁مڈویسٹ	-11.9178
رابنسن	-11.9178
▁دلدل	-11.9178
▁چامورو	-11.9178
▁پیرامیٹر	-11.9178
▁عیب	-11.9178
▁ٹیکٹونک	-11.9178
▁جواریز	-11.9179
▁پولیچیٹ	-11.9179
▁فینٹاس	-11.9179
▁عزت	-11.9179
▁0.7	-11.918
▁طنز	-11.918
4.9	-11.918
▁اسٹیڈ	-11.918
▁ژونگ	-11.918
▁لیبنی	-11.9181
▁آرمز	-11.9181
ریموٹ	-11.9181
▁چائے	-11.9182
▁پریشر	-11.9185
▁مندوب	-11.9188
▁1844	-11.9189
▁راہداری	-11.919
▁بلٹز	-11.9191
▁پڑت	-11.9191
▁1887	-11.9193
▁گونڈ	-11.9195
▁پونک	-11.9195
BC	-11.9202
▁بوائ	-11.921
ٹارچ	-11.9223
7.9	-11.9227
land	-11.9236
کلینک	-11.9238
اختیار	-11.9266
سیاہ	-11.9286
7.4	-11.9324
لنڈن	-11.9331
▁بولون	-11.9348
ریگلی	-11.9365
680	-11.9422
3.8	-11.9426
esti	-11.9438
▁حراست	-11.9438
وینیو	-11.9487
▁بدع	-11.9508
▁محم	-11.9529
▁incandescent	-11.9535
▁الیکٹرولائٹ	-11.9535
▁جاگیردار	-11.9535
▁رعایت	-11.9535
ί	-11.9535
ñ	-11.9535
▁ٹرانزیکشن	-11.9535
▁رینالڈ	-11.9535
شکریہ	-11.9535
▁مائکرونیشی	-11.9535
▁العم	-11.9535
▁کیرولنگین	-11.9535
▁دھواں	-11.9536
▁اکادی	-11.9536
▁فریزر	-11.9536
▁بھول	-11.9536
▁مینڈلس	-11.9538
▁یتیم	-11.954
▁فرائیڈ	-11.954
اجاگر	-11.9541
▁پکسل	-11.9541
▁Gra	-11.9547
▁چنگڈو	-11.9548
▁1808	-11.955
▁پولیمر	-11.955
▁سلیمان	-11.9552
ً	-11.9899
ة	-11.9905
ì	-11.9905
η	-12.029
ي	-12.029
ό	-12.029
е	-12.069
ś	-12.1107
Ü	-12.1107
۱	-12.1996
к	-12.1996
о	-12.1996
σ	-12.2472
ṇ	-12.2472
ê	-12.2472
ú	-12.2472
н	-12.2972
;	-12.2972
и	-12.3498
्	-12.3498
ç	-12.4054
म	-12.4054
с	-12.4054
ա	-12.4642
υ	-12.4642
۵	-12.4642
′	-12.4642
َ	-12.5267
р	-12.5267
Π	-12.5267
$	-12.5621
~	-12.5934
ē	-12.5934
漢	-12.5934
â	-12.5934
۹	-12.6648
→	-12.6648
в	-12.6648
ǎ	-12.7417
ύ	-12.7417
š	-12.7417
т	-12.7417
字	-12.7417
ě	-12.7417
ή	-12.8251
ّ	-12.8251
ध	-12.8251
ἀ	-12.8251
星	-12.8251
ו	-12.916
נ	-12.916
ô	-12.916
я	-12.916
י	-12.916
§	-12.916
ß	-12.916
ξ	-12.916
ḥ	-12.916
л	-12.916
Δ	-13.016
ר	-13.016
É	-13.016
β	-13.016
у	-13.016
ώ	-13.016
ø	-13.016
王	-13.016
ْ	-13.1271
ò	-13.1271
ь	-13.1271
̃	-13.1271
大	-13.1271
國	-13.1271
£	-13.1494
ş	-13.2521
м	-13.2521
·	-13.2521
ã	-13.2521
ć	-13.2521
χ	-13.2521
❤	-13.2521
喜	-13.2521
書	-13.2521
ン	-13.3949
φ	-13.3949
ы	-13.3949
ְ	-13.3949
ð	-13.3949
ź	-13.3949
й	-13.3949
ה	-13.3949
ת	-13.3949
子	-13.3949
支	-13.3949
西	-13.3949
å	-13.5616
ž	-13.5616
أ	-13.5616
リ	-13.5616
東	-13.5616
}	-13.5616
±	-13.5616
õ	-13.5616
ł	-13.5616
ק	-13.5616
र	-13.5616
书	-13.5616
试	-13.5616
쟁	-13.5616
전	-13.5616
Á	-13.5616
ħ	-13.5616
府	-13.5616
ス	-13.5616
국	-13.5616
ु	-13.5616
元	-13.5616
衛	-13.5616
ִ	-13.7616
ш	-13.7616
۴	-13.7616
ख	-13.7616
建	-13.7616
ʻ	-13.7616
ד	-13.7616
方	-13.7616
白	-13.7616
陳	-13.7616
ï	-13.7616
क	-13.7616
军	-13.7616
民	-13.7616
都	-14.0116
Ṣ	-14.0116
ー	-14.0116
מ	-14.0116
ك	-14.0116
@	-14.0116
¥	-14.0116
î	-14.0116
ù	-14.0116
û	-14.0116
ğ	-14.0116
ʼ	-14.0116
Η	-14.0116
א	-14.0116
ٔ	-14.0116
۲	-14.0116
۶	-14.0116
丹	-14.0116
争	-14.0116
京	-14.0116
剑	-14.0116
后	-14.0116
唐	-14.0116
帥	-14.0116
戦	-14.0116
法	-14.0116
蕃	-14.0116
đ	-14.0116
한	-14.0116
代	-14.0116
田	-14.0116
Õ	-14.0116
ŋ	-14.0116
г	-14.0116
开	-14.3449
ト	-14.3449
プ	-14.3449
ý	-14.3449
þ	-14.3449
̀	-14.3449
Β	-14.3449
Ν	-14.3449
В	-14.3449
Р	-14.3449
ж	-14.3449
ս	-14.3449
ּ	-14.3449
ى	-14.3449
ा	-14.3449
া	-14.3449
ῆ	-14.3449
り	-14.3449
タ	-14.3449
五	-14.3449
入	-14.3449
区	-14.3449
南	-14.3449
发	-14.3449
士	-14.3449
徒	-14.3449
戰	-14.3449
朝	-14.3449
爭	-14.3449
督	-14.3449
藏	-14.3449
話	-14.3449
话	-14.3449
趙	-14.3449
過	-14.3449
驗	-14.3449
验	-14.3449
방	-14.3449
조	-14.3449
Λ	-14.3449
吉	-14.3449
장	-14.3449
д	-14.345
韓	-14.345
해	-14.345
ի	-14.345
ร	-14.8449
น	-14.8449
ส	-14.8449
า	-14.8449
产	-14.8449
持	-14.8449
新	-14.8449
高	-14.8449
イ	-14.8449
业	-14.8449
Φ	-14.8449
К	-14.8449
ַ	-14.8449
Ø	-14.8449
ė	-14.8449
东	-14.8449
後	-14.8449
Ô	-14.8449
ą	-14.8449
Ē	-14.8449
ę	-14.8449
œ	-14.8449
ơ	-14.8449
Γ	-14.8449
Ψ	-14.8449
ζ	-14.8449
ъ	-14.8449
Պ	-14.8449
կ	-14.8449
ր	-14.8449
ֵ	-14.8449
ָ	-14.8449
ׂ	-14.8449
ל	-14.8449
ש	-14.8449
ـ	-14.8449
ٍ	-14.8449
ۂ	-14.8449
۷	-14.8449
۸	-14.8449
त	-14.8449
ि	-14.8449
্	-14.8449
ố	-14.8449
ụ	-14.8449
ὸ	-14.8449
√	-14.8449
さ	-14.8449
ぶ	-14.8449
ら	-14.8449
シ	-14.8449
レ	-14.8449
ロ	-14.8449
中	-14.8449
來	-14.8449
候	-14.8449
光	-14.8449
切	-14.8449
包	-14.8449
十	-14.8449
双	-14.8449
口	-14.8449
吐	-14.8449
基	-14.8449
复	-14.8449
夷	-14.8449
女	-14.8449
寧	-14.8449
对	-14.8449
将	-14.8449
師	-14.8449
張	-14.8449
征	-14.8449
恢	-14.8449
政	-14.8449
族	-14.8449
案	-14.8449
楊	-14.8449
江	-14.8449
海	-14.8449
灾	-14.8449
番	-14.8449
知	-14.8449
舍	-14.8449
讀	-14.8449
越	-14.8449
重	-14.8449
針	-14.8449
隶	-14.8449
雙	-14.8449
音	-14.8449
顯	-14.8449
도	-14.8449
親	-14.8449
з	-14.8449
ח	-14.8449
۰	-14.8449
利	-14.8449
平	-14.8449
武	-14.8449
교	-14.8449
ल	-14.845
三	-14.845
按	-14.845
有	-14.845
校	-14.845
浦	-14.845
渣	-14.845
腐	-14.845
豆	-14.845
Լ	-14.845
բ	-14.845
菩	-15.837
红	-15.8371
紅	-15.8372
烏	-15.8373
斯	-15.8374
圖	-15.8375
П	-15.8376
̊	-15.8377
Š	-15.8378
Ş	-15.8379
기	-15.838
震	-15.8381
福	-15.8382
渤	-15.8383
泥	-15.8384
汶	-15.8385
术	-15.8386
技	-15.8387
成	-15.8388
川	-15.8389
地	-15.839
土	-15.8391
ミ	-15.8392
フ	-15.8393
コ	-15.8394
キ	-15.8395
ァ	-15.8396
ष	-15.8397
ठ	-15.8398
إ	-15.8399
ψ	-15.84
Æ	-15.8401
思	-15.8402
力	-15.8403
俄	-15.8404
צ	-15.8405
հ	-15.8406
̧	-15.8407
́	-15.8408
ļ	-15.8409
Î	-15.841
卫	-15.8411
⁄	-15.8412
द	-15.8413
ն	-15.8414
յ	-15.8415
Σ	-15.8416
Α	-15.8417
ń	-15.8418
₹	-15.8419
Ś	-15.842
Ā	-15.8421
{	-15.8422
ṭ	-15.8423
ë	-15.8424
Ö	-15.8425
铺	-15.8426
紫	-15.8427
水	-15.8428
库	-15.8429
坪	-15.843
•	-15.8431
Κ	-15.8432
Ż	-15.8433
›	-15.8434
İ	-15.8435
航	-15.8436
统	-15.8437
系	-15.8438
斗	-15.8439
导	-15.844
北	-15.8441
ῖ	-15.8442
Χ	-15.8443
<	-15.8444
۳	-15.8445
^	-15.8446
€	-15.8447
_	-15.8448
ง	-15.8448
ี	-15.8448
เ	-15.8448
โ	-15.8448
#	-15.8449
ย	-15.8449
ศ	-15.8449
อ	-15.8449
ิ	-15.8449
济	-15.8449
经	-15.8449
ピ	-15.8449
ュ	-15.8449
ラ	-15.8449
Ó	-15.8449
ἐ	-15.8449
¡	-15.8449
前	-15.8449
拼	-15.8449
¢	-15.8449
ċ	-15.8449
ġ	-15.8449
Ł	-15.8449
ő	-15.8449
ɨ	-15.8449
Ε	-15.8449
Є	-15.8449
б	-15.8449
п	-15.8449
х	-15.8449
Հ	-15.8449
տ	-15.8449
ց	-15.8449
ז	-15.8449
ם	-15.8449
ס	-15.8449
פ	-15.8449
ः	-15.8449
न	-15.8449
प	-15.8449
জ	-15.8449
প	-15.8449
ম	-15.8449
য	-15.8449
র	-15.8449
ল	-15.8449
স	-15.8449
ಚ	-15.8449
ಮ	-15.8449
ಿ	-15.8449
ṛ	-15.8449
ỉ	-15.8449
ồ	-15.8449
ờ	-15.8449
ὐ	-15.8449
ὶ	-15.8449
は	-15.8449
ク	-15.8449
セ	-15.8449
チ	-15.8449
パ	-15.8449
ャ	-15.8449
ワ	-15.8449
丁	-15.8449
主	-15.8449
义	-15.8449
事	-15.8449
仔	-15.8449
他	-15.8449
会	-15.8449
伝	-15.8449
伯	-15.8449
何	-15.8449
侍	-15.8449
像	-15.8449
兵	-15.8449
凹	-15.8449
刘	-15.8449
剧	-15.8449
印	-15.8449
叠	-15.8449
古	-15.8449
和	-15.8449
块	-15.8449
坤	-15.8449
城	-15.8449
堂	-15.8449
塊	-15.8449
変	-15.8449
天	-15.8449
奴	-15.8449
妹	-15.8449
安	-15.8449
巡	-15.8449
帝	-15.8449
常	-15.8449
廷	-15.8449
忒	-15.8449
总	-15.8449
提	-15.8449
撫	-15.8449
教	-15.8449
日	-15.8449
時	-15.8449
替	-15.8449
本	-15.8449
朱	-15.8449
杭	-15.8449
比	-15.8449
汉	-15.8449
泉	-15.8449
潮	-15.8449
片	-15.8449
特	-15.8449
理	-15.8449
用	-15.8449
甫	-15.8449
異	-15.8449
秀	-15.8449
緑	-15.8449
緣	-15.8449
緩	-15.8449
绍	-15.8449
耶	-15.8449
興	-15.8449
船	-15.8449
良	-15.8449
苗	-15.8449
草	-15.8449
萨	-15.8449
蒲	-15.8449
薩	-15.8449
虫	-15.8449
蝶	-15.8449
表	-15.8449
覆	-15.8449
見	-15.8449
説	-15.8449
議	-15.8449
起	-15.8449
軍	-15.8449
逸	-15.8449
道	-15.8449
金	-15.8449
陵	-15.8449
陽	-15.8449
館	-15.8449
體	-15.8449
독	-15.8449
로	-15.8449
리	-15.8449
스	-15.8449
회	-15.8449
ग	-15.845
審	-15.845
皇	-15.845
言	-15.845
Х	-15.845
ಶ	-15.845
್	-15.845
の	-15.845
ゼ	-15.845
ダ	-15.845
ル	-15.845
上	-15.845
下	-15.845
文	-15.845
松	-15.845
社	-15.845
義	-15.845
臣	-15.845
苏	-15.845
豊	-15.845
그	-15.845
대	-15.845
수	-15.845
예	-15.845
[	-15.845
А	-15.845
ч	-15.845
仕	-15.845
様	-15.845
標	-15.845
準	-15.845
